{"id": "candidate/bpe-sib200-nko-v5", "merges": [["a", "n"], ["k", "a"], ["n", "a"], ["y", "a"], ["b", "a"], ["w", "a"], ["m", "a"], ["i", "n"], ["l", "a"], ["k", "u"], ["t", "a"], ["l", "i"], ["k", "o"], ["r", "a"], ["g", "a"], ["d", "a"], ["e", "n"], ["t", "i"], ["s", "a"], ["k", "i"], ["s", "i"], ["m", "u"], ["r", "i"], ["h", "a"], ["\u07ca", "\u07ec"], ["o", "n"], ["b", "i"], ["z", "a"], ["l", "e"], ["r", "e"], ["y", "e"], ["t", "e"], ["m", "i"], ["b", "u"], ["\u07ca", "\u07eb"], ["k", "e"], ["\u07f2", "\u07ec"], ["t", "o"], ["y", "o"], ["b", "o"], ["d", "i"], ["u", "n"], ["b", "e"], ["z", "i"], ["h", "i"], ["w", "e"], ["g", "i"], ["an", "a"], ["l", "o"], ["m", "o"], ["m", "e"], ["t", "u"], ["d", "e"], ["g", "o"], ["n", "i"], ["s", "u"], ["s", "o"], ["y", "i"], ["w", "o"], ["r", "o"], ["g", "e"], ["h", "e"], ["\u07d8", "\u07d0"], ["p", "e"], ["\u07ca", "\u07f2"], ["l", "u"], ["p", "a"], ["h", "u"], ["\u07cc", "\u07eb"], ["d", "o"], ["n", "e"], ["r", "u"], ["s", "e"], ["an", "i"], ["j", "i"], ["k", "wa"], ["f", "i"], ["\u07df", "\u07ca\u07eb"], ["\u07cd", "\u07f2"], ["\u07ce", "\u07ec"], ["g", "u"], ["f", "a"], ["m", "ba"], ["w", "\u1ecd"], ["p", "o"], ["w", "u"], ["h", "o"], ["o", "ku"], ["b", "an"], ["\u07cb", "\u07eb"], ["k", "an"], ["d", "u"], ["d", "\u1ecb"], ["j", "a"], ["g", "b"], ["n", "'"], ["\u07df", "\u07ca"], ["n", "ga"], ["w", "an"], ["m", "in"], ["n", "o"], ["y", "an"], ["p", "i"], ["\u1eb9", "\u0300"], ["\u07cf", "\u07ec"], ["f", "u"], ["\u07df", "\u07cb"], ["\u07cc", "\u07ec"], ["\u07d8\u07d0", "\u07eb"], ["\u07e1", "\u07ca"], ["n", "\u00ed"], ["n", "y"], ["\u07e1", "\u07ca\u07ec"], ["v", "i"], ["s", "an"], ["\u1ecd", "\u0300"], ["\u1eb9", "\u0301"], ["t", "an"], ["\u07cd", "\u07ec"], ["w\u1ecd", "n"], ["e", "za"], ["z", "o"], ["m", "an"], ["\u07cf", "\u07eb"], ["a", "ka"], ["a", "r"], ["s", "h"], ["z", "e"], ["\u07cd", "\u07eb"], ["\u07df", "\u07cc"], ["b", "\u1ee5"], ["\u07ca", "\u07f2\u07ec"], ["r", "in"], ["s", "ha"], ["\u07e6", "\u07cb\u07eb"], ["c", "i"], ["k", "in"], ["ka", "ti"], ["n", "ke"], ["o", "mu"], ["ma", "a"], ["\u07d0", "\u07f2"], ["\u07df", "\u07ce\u07ec"], ["o", "yo"], ["\u07d8", "\u07cc\u07eb"], ["j", "e"], ["\u07de", "\u07ca\u07ec"], ["c", "e"], ["s", "hi"], ["b", "wa"], ["c", "h"], ["m", "bo"], ["v", "a"], ["c", "ha"], ["\u1ecd", "\u0301"], ["r", "an"], ["\u07e3", "\u07cd\u07f2"], ["\u07de", "\u07ce"], ["\u07cc", "\u07f2"], ["l", "an"], ["\u07d3", "\u07ca"], ["y", "in"], ["z", "u"], ["y", "\u025b"], ["g", "ba"], ["j", "u"], ["e", "bi"], ["a", "ba"], ["p", "u"], ["n", "\u2019"], ["na", "-"], ["\u07e3", "\u07cc\u07eb"], ["\u07df\u07cb", "\u07ec"], ["w", "i"], ["\u07cc", "\u07f2\u07ec"], ["\u07ce", "\u07eb"], ["M", "a"], ["a", "ma"], ["n", "u"], ["a", "k"], ["a", "h"], ["e", "ra"], ["\u07e1", "\u07cd\u07f2"], ["\u00e0", "w\u1ecdn"], ["en", "e"], ["f", "o"], ["a", "l"], ["t", "\u00f3"], ["s", "in"], ["v", "u"], ["\u07d5", "\u07ca"], ["b", "in"], ["\u07e6", "\u07ca"], ["t", "\u00ed"], ["\u00fa", "n"], ["y", "u"], ["n", "d\u1ecb"], ["\u0256", "e"], ["a", "li"], ["r", "\u1ecb"], ["a", "m"], ["\u07d0", "\u07eb"], ["\u07d0", "\u07ec"], ["ma", "ka"], ["o", "bu"], ["l", "\u00e1"], ["r", "\u00ed"], ["\u07de", "\u07cf"], ["e", "ki"], ["a", "la"], ["in", "i"], ["w", "en"], ["c", "he"], ["\u07d8", "\u07ca"], ["f", "e"], ["d", "an"], ["ku", "n"], ["0", "0"], ["t", "on"], ["w", "ana"], ["h", "an"], ["t", "\u1ee5"], ["ba", "a"], ["sa", "la"], ["min", "gi"], ["m", "bu"], ["ah", "\u1ee5"], ["\u07cb", "\u07ec"], ["g", "wa"], ["b", "on"], ["e", "s"], ["r", "\u1ee5"], ["m", "pe"], ["t", "ye"], ["\u07f4", "\u07ca\u07ec"], ["w", "\u0254"], ["d", "de"], ["k", "ya"], ["\u07db", "\u07cc"], ["i", "ya"], ["c", "hi"], ["ma", "i"], ["\u07d3", "\u07cd"], ["e", "r"], ["s", "\u00ed"], ["t", "ti"], ["en", "ge"], ["si", "ka"], ["m", "be"], ["\u07d8", "\u07ce"], ["g", "ha"], ["mo", "ko"], ["B", "a"], ["t", "sa"], ["we", "re"], ["in", "e"], ["o", "l"], ["i", "he"], ["\u07d8", "\u07ca\u07eb"], ["g", "bo"], ["\u07ca\u07f2", "\u07eb"], ["\u07df", "\u07ce\u07eb"], ["l", "\u1eb9\u0300"], ["on", "i"], ["ya", "r"], ["d", "ha"], ["g", "an"], ["w", "on"], ["p", "\u1ee5"], ["\u07e0", "\u07ca\u07eb"], ["e", "b"], ["\u07df", "\u07cf"], ["t", "si"], ["l", "\u1ecd"], ["t", "ta"], ["\u07de", "\u07ca"], ["\u07de", "\u07cd\u07eb"], ["g", "wu"], ["\u00e0", "n"], ["ku", "ma"], ["\u07de", "\u07d0"], ["\u07e2", "\u07ca"], ["a", "ta"], ["o", "k"], ["t", "un"], ["m", "bi"], ["kati", "ka"], ["i", "li"], ["yan", "go"], ["t", "in"], ["ku", "wa"], ["m", "po"], ["a", "sa"], ["g", "h"], ["ka", "ma"], ["a", "ti"], ["d", "hi"], ["\u00ec", "n"], ["\u07e3\u07cd\u07f2", "\u07eb"], ["\u07ce", "\u07f2"], ["e", "k"], ["g", "be"], ["p", "an"], ["a", "ra"], ["d", "da"], ["a", "si"], ["k", "\u1ecd"], ["e", "l"], ["i", "s"], ["\u00e0", "ti"], ["\u0257", "o"], ["n", "d"], ["\u07cb", "\u07f2"], ["m", "ma"], ["e", "be"], ["e", "m"], ["\u07e0", "\u07ce\u07ec"], ["\u07de", "\u07ca\u07f2\u07ec"], ["en", "i"], ["un", "i"], ["n", "an"], ["v", "o"], ["j", "o"], ["\u07d8", "\u07cf\u07eb"], ["ma", "la"], ["i", "ke"], ["e", "ri"], ["i", "na"], ["w\u1ecd", "\u0301"], ["lo", "ko"], ["in", "g"], ["\u07de", "\u07f5"], ["a", "s"], ["o", "tu"], ["e", "te"], ["wa", "li"], ["\u07de", "\u07e3"], ["i", "me"], ["z", "an"], ["l", "\u00e9"], ["k", "p"], ["o", "m"], ["w", "\u1ee5"], ["en", "de"], ["ta", "r"], ["ba", "to"], ["t", "s"], ["sa", "a"], ["\u07de", "\u07cf\u07eb"], ["s", "he"], ["l", "\u00f3"], ["y", "ana"], ["n", "were"], ["on", "ye"], ["ka", "r"], ["k", "\u028b"], ["f", "an"], ["a", "."], ["y", "'"], ["y", "en"], ["in", "o"], ["la", "ki"], ["b", "\u00ed"], ["\u07d8", "\u07cd"], ["n", "ye"], ["\u07e3", "\u07cc\u07f2\u07ec"], ["l\u00e1", "ti"], ["k", "pa"], ["a", ","], ["a", "ga"], ["c", "in"], ["\u07e3", "\u07ca"], ["q", "u"], ["g", "en"], ["la", "ka"], ["a", "t"], ["k", "\u00f2"], ["\u07e6", "\u07d9"], ["a", "u"], ["m", "pi"], ["k", "\u0254"], ["\u07d5\u07ca", "\u07ef"], ["m", "\u1ee5"], ["\u1ecd", "n"], ["N", "a"], ["mpo", "na"], ["\u07df\u07cb", "\u07f2"], ["\u07cb", "\u07f2\u07ec"], ["c", "o"], ["e", "mi"], ["e", "zi"], ["t", "ra"], ["j", "\u00fa"], ["a", "a"], ["i", "re"], ["\u07cf", "\u07f2\u07ec"], ["\u07d5", "\u07cd"], ["\u07d8", "\u07cd\u07ec"], ["m", "wa"], ["n", "\u028b"], ["in", "gi"], ["a", "y"], ["i", "ri"], ["mi", "ri"], ["e", "ko"], ["\u07de\u07f5", "\u07ca\u07ec"], ["u", "r"], ["i", "si"], ["n", "ti"], ["s", "un"], ["l", "\u0254"], ["m", "p"], ["r", "\u1ecd"], ["gh", "\u1ecb"], ["p", "\u1ecd\u0300"], ["k", "we"], ["d", "wa"], ["b", "we"], ["su", "su"], ["\u00e1", "\u00e0"], ["d", "zi"], ["ya", "a"], ["\u07ce", "\u07f2\u07ec"], ["f", "\u00fan"], ["a", "i"], ["\u07e2", "\u07d0\u07f2"], ["o", "r"], ["l", "\u00fa"], ["e", "t"], ["mo", "to"], ["ko", "n"], ["i", "r"], ["d", "on"], ["ka", "."], ["\u07df", "\u07ca\u07ec"], ["d", "\u00e1"], ["\u00f9", "n"], ["bi", "ri"], ["o", "ba"], ["\u07de", "\u07cd"], ["b", "\u0254"], ["s", "\u1ecb"], ["ko", "la"], ["1", "9"], ["l", "in"], ["mu", "n"], ["\u07d8", "\u07ca\u07ec"], ["l", "on"], ["ba", "li"], ["\u07d5", "\u07cc"], ["ka", "ra"], ["l", "wa"], ["e", "ti"], ["i", "ra"], ["u", "m"], ["\u07dd", "\u07cd\u07ec"], ["w", "ani"], ["ci", "kin"], ["t", "en"], ["o", "lu"], ["c", "hu"], ["\u07db", "\u07cf"], ["a", "re"], ["u", "na"], ["da", "ga"], ["a", "f"], ["k", "y\u025b"], ["wa", "r"], ["\u07d8\u07d0\u07eb", "."], ["ba", "la"], ["d", "\u1ee5"], ["\u07df", "\u07d0"], ["an", "o"], ["e", "le"], ["wen", "ye"], ["a", "\u0256e"], ["g", "bu"], ["a", "mba"], ["i", "di"], ["v", "e"], ["u", "s"], ["c", "a"], ["lan", "gi"], ["\u07df", "\u07d0\u07f2"], ["\u07cb", "\u07df\u07cb\u07f2"], ["ta", "ra"], ["b", "\u025b"], ["k", "ana"], ["en", "ga"], ["\u07e0", "\u07cc\u07f2"], ["\u0253", "e"], ["g", "un"], ["an", "ya"], ["\u07d6", "\u07cc"], ["z", "\u1ecd"], ["K", "u"], ["l", "\u025b"], ["i", "ta"], ["\u07ef", "\u07d9"], ["h", "un"], ["m", "we"], ["\u07de\u07ce", "\u07f2\u07ec"], ["\u07d0", "\u07f0"], ["\u1e63", "e"], ["ka", "a"], ["e", "ya"], ["p", "\u00e9"], ["te", "e"], ["so", "bo"], ["y", "\u00ed"], ["w\u1ecd\u0301", "n"], ["\u07e6", "\u07ca\u07ec"], ["w", "\u00e0"], ["i", "t"], ["n", "\u0301"], ["2", "0"], ["\u07cf", "\u07f2"], ["t", "\u00e0"], ["sh", "in"], ["i", "k"], ["n", "g"], ["n", "yo"], ["e", "me"], ["o", "o"], ["J", "a"], ["y", "on"], ["n", "je"], ["n", "\u1ecd"], ["yi", "na"], ["m", "me"], ["\u07e0", "\u07cb\u07ec"], ["\u07e6", "\u07ca\u07eb"], ["ki", "ri"], ["ta", "a"], ["\u07d5", "\u07cd\u07eb"], ["l", "\u00e8"], ["min", "e"], ["ka", ","], ["\u07db", "\u07cb\u07eb"], ["\u07de", "\u07d9"], ["\u07d3", "\u07d0"], ["\u07db", "\u07ce"], ["n", "da"], ["gb", "\u00e0"], ["ko", "le"], ["\u12a3", "\u1265"], ["ma", "su"], ["\u07df", "\u07cc\u07ec"], ["ka", "sa"], ["la", ","], ["ki", "li"], ["b", "\u00e1"], ["d", "in"], ["n", "de"], ["\u07de\u07e3", "\u07d0\u07eb"], ["e", "e"], ["in", "ga"], ["ku", "li"], ["\u07db", "\u07ca\u07f2"], ["\u07d8\u07d0", "\u07ec"], ["k", "hu"], ["e", "ye"], ["d", "\u00ed"], ["si", "te"], ["r", "wa"], ["\u07d5", "\u07ca\u07ec"], ["\u07df", "\u07cb\u07eb"], ["m", "en"], ["s", "hu"], ["\u07db", "\u07d0\u07ec"], ["k", "wenye"], ["a", "d"], ["e", "sika"], ["n", "ya"], ["n", "so"], ["s", "on"], ["s", "y"], ["w", "'"], ["c", "ho"], ["M", "u"], ["k", "ka"], ["n", "si"], ["k", "ani"], ["\u07d8", "\u07cc"], ["w", "\u00e1"], ["n", "\u00e1\u00e0"], ["ma", "ra"], ["o", "ri"], ["mo", "susu"], ["\u1ecd", "k"], ["ma", "."], ["z", "wa"], ["ta", "mbu"], ["sa", "le"], ["f", "in"], ["\u0263", "u"], ["ki", "ra"], ["\u07de", "\u07ca\u07f2"], ["a", "ri"], ["le", "e"], ["mu", "li"], ["ban", "go"], [")", "."], ["gb", "\u1ecd"], ["sin", "ga"], ["ha", "ri"], ["\u07de", "\u07ca\u07eb"], ["i", "da"], ["ha", "li"], ["o", "ge"], ["ban", "tu"], ["ka", "si"], ["\u07de\u07ce", "\u07f2"], ["s", "ana"], ["k", "wu"], ["la", "."], ["i", "le"], ["W", "a"], ["\u120d", "\u1362"], ["ny", "\u025b"], ["\u07db\u07d0\u07ec", "\u07d8\u07d0"], ["m", "ana"], ["ba", "le"], ["n", "di"], ["b", "ba"], ["we", "za"], ["e", "re"], ["an", "yi"], ["ya", "."], ["s", "\u00ec"], ["\u07d9", "\u07cc"], ["\u12a5", "\u1295"], ["ko", "lo"], ["b", "ya"], ["un", "gi"], ["wan", "da"], ["ch", "\u1ecb"], ["na", "."], ["u", "li"], ["w", "\u00f2"], ["ra", "a"], ["r", "\u00ecn"], ["ga", "-"], ["\u0192", "e"], ["ku", "u"], ["sobo", "la"], ["j", "\u1eb9\u0301"], ["y", "\u2019"], ["\u07dc", "\u07ed"], ["\u07e1", "\u07ca\u07eb"], ["\u07e3", "\u07cc\u07f2"], ["k", "\u00ed"], ["a", "wa"], ["a", "ha"], ["ny", "on"], ["ce", "wa"], ["\u07e1", "\u07ca\u07f2"], ["m", "on"], ["m", "miri"], ["\u014b", "a"], ["mu", "."], ["ki", "sa"], ["ta", "fi"], ["g", "on"], ["ka", "li"], ["a", "da"], ["bu", "li"], ["s", "\u1ecd"], ["\u1ee5", "m\u1ee5"], ["\u07d5", "\u07ce\u07ec"], ["\u07db", "\u07ca\u07ec"], ["s", "ho"], ["s", "."], ["K", "o"], ["nje", "m"], ["\u07e5", "\u07df\u07ca\u07eb"], ["\u07db", "\u07ca"], ["ta", "li"], ["t", "ana"], ["l", "la"], ["a", "bu"], ["n", "tan"], ["w", "\u2019"], ["k", "\u00f3"], ["k", "ye"], ["a", "ko"], ["n", "in"], ["an", "ga"], ["e", "gwu"], ["\u07e3", "\u07ca\u07ec"], ["n", "\u00fa"], ["wa", "."], ["ra", "r"], ["ta", "re"], ["so", "ro"], ["\u07d3", "\u07cc\u07ec"], ["S", "a"], ["K", "i"], ["y", ","], ["ton", "o"], ["te", "r"], ["ma", "r"], ["be", "re"], ["\u1ee5", "gb\u1ecd"], ["\u07df\u07ca\u07eb", "."], ["o", "lo"], ["sa", "ka"], ["me", "re"], ["B", "u"], ["\u00ec", "\u00ed"], ["t\u1ee5", "t\u1ee5"], ["ra", "."], ["m", "gbe"], ["maka", "mbo"], ["sa", "u"], ["\u07d8", "\u07ca\u07f2"], ["mo", "ja"], ["ba", "ko"], ["ma", "ta"], ["en", "da"], ["ya", ","], ["su", "ka"], ["\u07dd", "\u07ca\u07f2"], ["\u07e1", "\u07ca\u07f2\u07eb"], ["\u07df", "\u07cc\u07eb"], ["c", "u"], ["p\u1ee5", "ta"], ["a", "g"], ["mo", "na"], ["a", "te"], ["bo", "so"], ["su", "na"], ["l", "li"], ["d", "za"], ["i", "sa"], ["a", "yi"], ["k", "ha"], ["\u014b", "u"], ["i", "che"], ["\u07d9", "\u07ca"], ["\u00c0", "w\u1ecdn"], ["m", "\u1ecd\u0300"], ["di", "a"], ["ka", "la"], ["A", "f"], ["j", "\u1ecd"], ["\u07d3\u07cd", "\u07ef"], ["\u07e6", "\u07f4\u07ca\u07ec"], ["p", "\u1eb9\u0300"], ["\u1ecd", "r\u1ee5"], ["v", "ya"], ["h", "\u0254"], ["m", "."], ["l", "y"], ["f", "un"], ["nd", "enge"], ["ga", "la"], ["d", "un"], ["\u07e3", "\u07cd"], ["i", "."], ["A", "n"], ["a", "me"], ["na", "ye"], ["lo", "ba"], ["\u1ecd", "b\u1ee5"], ["a", "min"], ["E", "n"], ["m", "pa"], ["b", "ye"], ["A", "me"], ["ku", "to"], ["ko", "ta"], ["\u1ecd", "r\u1ecd"], ["\u07d3", "\u07d0\u07eb"], ["\u07e0", "\u07ca"], ["\u07e1", "\u07d0\u07f0"], ["g", "in"], ["zu", "wa"], ["l", "ya"], ["j", "ja"], ["sa", "li"], ["e", "lu"], ["v", "yo"], ["ri", "a"], ["te", "le"], ["ko", "sala"], ["r", "\u00f2"], ["\u07e2\u07d0\u07f2", "\u07f0"], ["s", "t"], ["a", "b\u1ee5"], ["ku", "na"], ["da", "a"], ["n", "\u00e0"], ["\u1ecd", "d\u1ee5"], ["\u07de", "\u07cf\u07ec"], ["bon", "go"], ["r", "on"], ["a", "b"], ["k", "wan"], ["l", "en"], ["S", "o"], ["z", "vi"], ["P", "a"], ["ga", "ba"], ["li", "boso"], ["gb", "\u00e1"], ["ntan", "go"], ["\u07e3", "\u07ca\u07eb"], ["\u07d3\u07cd", "\u07f2\u07ec"], ["\u07d5\u07ca\u07ef", "\u07e1\u07ca"], ["o", "."], ["d", "\u0254"], ["o", "bo"], ["o", "s"], ["ri", "ka"], ["lan", "d"], ["\u07db", "\u07d1"], ["\u07dd", "\u07ca\u07ec"], ["na-", "e"], ["bi", "li"], ["'", "ny"], ["O", "mu"], ["bi", "loko"], ["u", "ka"], ["j", "in"], ["g", "we"], ["wa", "san"], ["\u07d0\u07f2", "\u07eb"], ["\u07db\u07cc", "\u07e6\u07ca"], ["\u07d8", "\u07cd\u07eb"], ["p\u1eb9\u0300", "l\u00fa"], ["m", "\u00e1"], ["ka", "wa"], ["w\u0254", "n"], ["ki", "."], ["la", "a"], ["o", "ko"], ["ka", "ta"], ["eza", "laka"], ["\u07d6", "\u07ca"], ["y", "."], ["j", "\u00ec"], ["gb", "\u00e9"], ["p", "pe"], ["ga", "a"], ["te", "."], ["si", ","], ["ny", "ingi"], ["so", "lo"], ["e", "z"], ["\u07dd", "\u07cf"], ["\u07d3", "\u07ca\u07f2"], ["\u07db\u07d0\u07ec\u07d8\u07d0", "\u07f2\u07ec"], ["fa", "r"], ["an", "e"], ["nyon", "so"], ["sa", "ba"], ["\u07e0", "\u07ce\u07eb"], ["\u07e3", "\u07f4\u07ca\u07ec"], ["\u07d8", "\u07cf\u07f2\u07ec"], ["a", "z"], ["ko", "no"], ["ku", "la"], ["00", "0"], ["\u07df", "\u07ca\u07f2"], ["\u07d3\u07ca", "\u07ef\u07d9"], ["ban", "da"], ["ti", "a"], ["o", "si"], ["H", "a"], ["ka", "ka"], ["\u0257", "a"], ["li", "a"], ["k", "\u1ecd\u0301"], ["\u07d3", "\u07ca\u07ec"], ["\u07df", "\u07cf\u07eb"], ["ga", "r"], ["wa", "kati"], ["\u120b", "\u12ed"], ["wa", "a"], ["m", "ani"], ["bi", "sika"], ["\u07dd", "\u07ca"], ["\u07d6", "\u07ca\u07ec"], ["n\u00ed", "n\u00fa"], ["sa", "ra"], ["u", "ti"], ["g", "ana"], ["N", "e"], ["a", "bantu"], ["a", "gba"], ["i", ","], ["mi", "bale"], ["mala", "mu"], ["s", ","], ["i", "l\u1eb9\u0300"], ["n", "we"], ["\u07dd", "\u07cb\u07f2"], ["w", "\u00f3"], ["t", "\u1ecb"], ["\u1ee5", "l\u1ecd"], ["e", ","], ["o", "t"], ["s", "si"], ["to", "ko"], ["fi", "ri"], ["ma", ","], ["l", "\u1eb9\u0301"], ["\u07d5\u07ca\u07ec", "\u07e1"], ["r", "\u1eb9"], ["l", "\u1ecd\u0301"], ["ka", "ri"], ["ga", "ri"], ["ki", "ta"], ["sa", "r"], ["f", "fa"], ["t", "\u0254"], ["a", "wu"], ["k", "en"], ["\u0199", "ar"], ["\u07ef", "\u07e6\u07ca"], ["\u1e63", "\u1eb9\u0301"], ["ka", "r\u1ecb"], ["\u12ce", "\u127d"], ["d", "ini"], ["g", "ya"], ["o", "ke"], ["ta", "."], ["a", "\u0300"], ["obo", "do"], ["\u07cc\u07ec", "\u07d8\u07ca\u07ec"], ["\u07de", "\u07cb\u07df\u07cb\u07f2"], ["\u07de", "\u07cc"], ["B", "i"], ["g", "yina"], ["mi", "sa"], ["na", "a"], ["ma", "be"], ["wa", ","], ["j", "\u00e1"], ["\u1ecd", "t\u1ee5t\u1ee5"], ["\u07d5", "\u07ce\u07f2\u07ec"], ["\u07de", "\u07ce\u07ec"], ["\u07dd", "\u07cc\u07ec"], ["j", "\u00f9"], ["r", "\u00e9"], ["d", "di"], ["tu", "ka"], ["yo", "o"], ["S", "u"], ["ba", "r"], ["ba", "ra"], ["un", "gu"], ["ya", "li"], ["\u07e3", "\u07ca\u07f2"], ["\u07d5", "\u07d0"], ["m", ","], ["ar", "y"], ["A", "ba"], ["g", "ga"], ["u", "ta"], ["re", "gwu"], ["\u07df\u07cf", "\u07f2"], ["j", "\u1eb9"], ["i", "l\u00e9"], ["lo", "ka"], ["f", "ani"], ["mi", "a"], ["en", "o"], ["si", "ri"], ["d", "dwa"], ["\u07e3", "\u07cc"], ["\u07e6\u07d9", "\u07d0"], ["\u07d8", "\u07cc\u07ec"], ["\u07e1\u07ca", "\u07f2\u07ec"], ["t", "h"], ["ha", "r"], ["af", "\u1ecd"], ["gha", "r\u1ecb"], ["'", "a"], ["d", "\u028b"], ["j", "en"], ["b", "ana"], ["\u1293", "\u12ed"], ["M", "o"], ["g", "ani"], ["zi", "na"], ["ku", "tu"], ["h", "y\u025b"], ["ro", "o"], ["ba", "za"], ["e", "zo"], ["r", "\u00e1"], ["\u07d9", "\u07cb\u07f2"], ["\u07e5", "\u07ca"], ["\u07dd", "\u07ca\u07f2\u07ec"], ["r", "\u1eb9\u0300"], ["en", "ye"], ["za", "idi"], ["ma", "ki"], ["e", "."], ["ku", "ba"], ["ya", "ka"], ["ok", "we"], ["mba", "la"], ["ya", "ke"], ["i", "\u0300"], ["20", "1"], ["\u07e1\u07ca\u07ec", "."], ["\u07e2", "\u07e3\u07ca"], ["i", "se"], ["mi", "li"], ["zi", "li"], ["i", "ye"], ["de", "'"], ["to", "o"], ["me", "\u014b"], ["m", "na"], ["san", "ga"], ["o", "r\u00ed"], ["\u07d8\u07ce", "\u07f0"], ["\u07d8", "\u07ca\u07f2\u07ec"], ["\u07e4", "\u07ca"], ["ba", "b"], ["m", "\u1ecd"], ["j", "\u00f2"], ["a", "kwa"], ["ak", "\u1ee5"], ["n", "ji"], ["v", "an"], ["zu", "\u0263u"], ["ze", "la"], ["A", "l"], ["t", "su"], ["bu", "la"], ["oku", "va"], ["o", "j\u00fa"], ["za", "ma"], ["\u07d8\u07d0\u07eb", "\u07f8"], ["\u07dd", "\u07d9"], ["m", "\u1ecd\u0301"], ["ku", "sa"], ["e", "bin"], ["a", "wo"], ["be", "era"], ["\u1ecd", "z\u1ecd"], ["\u07d3", "\u07df\u07cf\u07eb"], ["\u07e6", "\u07cc"], ["h", "in"], ["i", "za"], ["o", ","], ["k", "ende"], ["yan", "ja"], ["ku", "ku"], ["\u0263", "a"], ["bon", "gi"], ["2", "00"], ["S", "an"], ["w", "\u00ed"], ["\u07d3", "\u07df\u07cf"], ["\u07df", "\u07d0\u07ec"], ["\u07d6", "\u07ed"], ["gb", "\u00e8"], ["q", "q"], ["b", "yo"], ["\u0254", "ge"], ["mi", "ta"], ["tun", "du"], ["p", "\u00e8"], ["J", "o"], ["ban", "ye"], ["eza", "laki"], ["\u07e6\u07d9", "\u07cc"], ["\u07ca\u07ec", "\u07df\u07ce\u07ec"], ["\u07c0", "\u07c0"], ["d", "en"], ["o", "mi"], ["s", "en"], ["i", "ji"], ["la", "i"], ["ma", "ko"], ["am", "ma"], ["ga", "ra"], ["i", "rin"], ["a\u0256e", "wo"], ["s", "sa"], ["za", "la"], ["y", "\u00e0n"], ["\u07df", "\u07f4\u07ca\u07ec"], ["\u0199", "asa"], ["t", "wa"], ["li", "i"], ["x", "i"], ["v", "aka"], ["ba", "ta"], ["d", "\u0269"], ["a", "be"], ["ke", "e"], ["ja", "wu"], ["\u0300", "n"], ["\u07df", "\u07cd\u07ec"], ["m", "\u00ed"], ["m", "\u1eb9\u0301"], ["\u0257", "i"], ["ab\u1ee5", "\u1ecd"], ["pe", "sa"], ["dha", "."], ["p", "in"], ["si", "."], ["o", "ti"], ["la", "la"], ["ki", "lo"], ["en", "we"], ["\u07df", "\u07ce\u07f2"], ["gbo", "gbo"], ["ny\u025b", "la"], ["on", "o"], ["n", "\u0254"], ["M", "i"], ["yu", "ma"], ["bi", "ra"], ["ji", "r"], ["t\u00e0", "b\u00ed"], ["ka", "cha"], ["\u07d8", "\u07ce\u07ec"], ["\u07d6", "\u07ca\u07f2\u07ec"], ["d", "\u00e0"], ["ku", "mi"], ["r", "t"], ["re", "e"], ["s", "\u025b"], ["o", "gu"], ["u", "ri"], ["ga", ","], ["o", "g"], ["on", "go"], ["p", "\u1ecd"], ["za", "i"], ["\u07d8\u07cc\u07eb", "."], ["\u07de", "\u07d8\u07d0"], ["le", "."], ["\u1ecb", "a"], ["j", "wa"], ["d", "\u00e9"], ["na", "m"], ["ka", "\u014ba"], ["te", ","], ["lo", ","], ["ku", "ra"], ["so", "ki"], ["l", "\u00f2"], ["y", "\u00ecn"], ["\u1ee5", "z\u1ecd"], ["go", "si"], ["\u07d5\u07ca\u07ec\u07e1", "\u07cc\u07f2\u07ec"], ["\u07d5", "\u07cf"], ["\u07df", "\u07cd"], ["m", "\u00e9"], ["N", "d\u1ecb"], ["z", "zi"], ["t", "se"], ["ba", "."], ["O", "ku"], ["egwu", "regwu"], ["ku", "bwa"], ["mbo", "ka"], ["\u07d6", "\u07cc\u07ec"], ["\u07d5\u07cd", "\u07f0"], ["\u07d9", "\u07d1"], ["\u07db", "\u07d3\u07cd"], ["\u07d3", "\u07cd\u07eb"], ["\u07de\u07ce", "\u07df\u07ce\u07f2"], ["bu", "lu"], ["\u12cd", "\u1362"], ["l", "l"], ["\u12dd", "\u1270"], ["z", "inga"], ["o", "na"], ["wa", "su"], ["wa", "ta"], ["\u07d6\u07ca", "\u07ef"], ["\u07d5", "\u07ce"], ["\u07dd", "\u07cf\u07ec"], ["\u07d6", "\u07cd\u07ec"], ["\u07db", "\u07d0"], ["r", "\u00f9n"], ["l\u00f3", "r\u00ed"], ["y", "\u00e9"], ["qu", "e"], ["S", "i"], ["si", "i"], ["pi", "li"], ["\u1361", "\u1361"], ["h", "\u00e3"], ["gu", "lu"], ["c", "k"], ["em", "mo"], ["re", "za"], ["i", "bi"], ["li", "na"], ["\u0257", "an"], ["R", "e"], ["p", "\u00e1"], ["be", "mbo"], ["\u07de", "\u07d0\u07ec"], ["\u07e2", "\u07ca\u07eb"], ["\u07db", "\u07cb\u07f2\u07ec"], ["\u07cc\u07f2", "\u07eb"], ["v", "er"], ["c", "an"], ["\u1ecd\u0301", "n"], ["h", "\u1ee5"], ["g", "\u1ee5"], ["\u12e8", "\u1270"], ["be", "e"], ["b", "ene"], ["k", "ho"], ["fu", "na"], ["baa", "ko"], ["ko", "m"], ["L", "i"], ["eb", "yo"], ["re", "."], ["k", "yo"], ["ki", ","], ["ze", "sa"], ["z", "on"], ["k", "\u00e9"], ["b", "\u1ecd"], ["am", "fani"], ["kwa", "mba"], ["\u07dc", "\u07cd"], ["\u07d5", "\u07cb\u07ec"], ["\u07e5", "\u07d9"], ["r", "en"], ["p", "\u00e0"], ["y", "ya"], ["\u0199", "a"], ["Y", "a"], ["ch", "\u1ecd"], ["k", "\u1ee5"], ["pa", "ta"], ["sh", "wa"], ["so", "."], ["w", "\u025b"], ["T", "o"], ["t", "\u025b"], ["ban", "ga"], ["an", "di"], ["r", "un"], ["a", "za"], ["B", "o"], ["en", "za"], ["s", "tan"], ["\u07d3", "\u07cc"], ["m", "man"], ["ku", "lu"], ["ran", "gi"], ["la", "ti"], ["\u12a5", "\u12da"], ["l", "ungi"], ["es", "sa"], ["u", "ra"], ["ko", "."], ["re", ","], ["o", "la"], ["eza", "li"], ["bu", "ga"], ["S", "e"], ["o", "hun"], ["\u07db\u07cc\u07e6\u07ca", "\u07e1\u07ca\u07f2\u07eb"], ["\u07d9", "\u07ca\u07f2"], ["\u07db\u07cc", "\u07df\u07ca"], ["me", "e"], ["s", "ani"], ["g", "ye"], ["hi", "ta"], ["tu", "u"], ["j", "an"], ["ka", "zi"], ["a", "ya"], ["i", "ki"], ["ki", "si"], ["maka", "si"], ["kin", "i"], ["\u00e8", "y\u00ed"], ["\u1ecdk", "\u1ecd\u0300"], ["ka", "san"], ["d\u1ecb", "ka"], ["gbu", "ru"], ["\u07e1", "\u07ce"], ["j", "\u1ecd\u0301"], ["p", "\u00f2"], ["a", "ji"], ["ma", "li"], ["ga", "vu"], ["ti", "."], ["e", "la"], ["amin", "'ny"], ["r", "\u0254"], ["e", "si"], ["i", "la"], ["ku", "mu"], ["\u0254", "nu"], ["kin", "o"], ["b", "ani"], ["s", "\u00e0"], ["g", "\u1eb9\u0301"], ["w", "\u00e9"], ["\u00ec", "r\u00ecn"], ["\u07cc", "\u07e3\u07cc\u07f2"], ["\u07dd", "\u07d0\u07eb"], ["\u07d5", "\u07df\u07cb\u07ec"], ["t", "\u00f2"], ["na", "an"], ["n'", "ime"], ["\u1ecdn", "\u1ee5"], ["\u12a5", "\u1293"], ["le", "s"], ["pi", "\u025b"], ["i", "ja"], ["i", "i"], ["t", "we"], ["ki", "toko"], ["ta", "ka"], ["no", "o"], ["jawu", "lo"], ["s", "ki"], ["mu", ","], ["nsi", "ma"], ["ta", ","], ["d", "\u00e8"], ["\u00ed", "n"], ["ma", "\u1ecdb\u1ee5"], ["\u07db", "\u07cf\u07ec"], ["\u07db\u07cc", "\u07f0"], ["\u07e1", "\u07d0"], ["pe", "r"], ["d", "\u00fan"], ["r", "\u00e0n"], ["sh", "en"], ["E", "bi"], ["za", "a"], ["r", "y"], ["g", "hi"], ["su", "u"], ["za", "\u0263"], ["ti", ","], ["me", "ra"], ["ny", "u"], ["d", "du"], ["so", "o"], ["ya", "wan"], ["wa", "ka"], ["on", "g"], ["N", "i"], ["a", "won"], ["1", "1"], ["b\u1ee5", "r\u1ee5"], ["\u07d6\u07cd\u07ec", "\u07d8\u07cd"], ["\u07d6", "\u07ce"], ["\u07dd", "\u07d0"], ["\u07e0", "\u07ca\u07ec"], ["\u07cd\u07f2", "\u07eb"], ["\u07e6", "\u07cb\u07f2\u07ec"], ["bi", "yu"], ["wan", "nan"], ["ki", "la"], ["li", "."], ["d", "h"], ["o", "b"], ["ku", "ri"], ["n", "sa"], ["be", "do"], ["kole", "ka"], ["n", "zela"], ["an", "an"], ["kp", "le"], ["d", "do"], ["kan", "di"], ["a", "fi"], ["u", "mu"], ["E", "ki"], [".", "."], ["r", "."], ["R", "o"], ["i", "fa"], ["te", "ge"], ["do", "go"], ["y", "\u00e0"], ["R", "a"], ["mma", "d\u1ee5"], ["\u07e6", "\u07cf\u07eb"], ["\u07d3", "\u07ca\u07eb"], ["\u07d3", "\u07cf\u07f2"], ["p", "en"], ["ru", "wa"], ["mo", "o"], ["li", ","], ["m", "wi"], ["k", "ki"], ["gan", "o"], ["l", "\u00e0"], ["L", "o"], ["mp", "enza"], ["\u07d5\u07ce\u07ec", "\u07e1\u07ca\u07ec"], ["\u07de\u07cf\u07ec", "\u07e3\u07cc\u07f2\u07ec"], ["\u07de", "\u07df\u07cf"], ["t", "re"], ["y", "\u1eb9"], ["a", "bin"], ["ma", "fi"], ["g", "\u1ecb"], ["\u0257", "um"], ["K", "a"], ["ba", "zo"], ["\u1218", "\u1235"], ["bi", "la"], ["tan", "e"], ["ha", "a"], ["va", "ra"], ["ku", "ti"], ["\u025b", "k\u028b"], ["da", ","], ["fa", "ra"], ["en", "si"], ["do", "min"], ["kuto", "ka"], ["\u07de", "\u07ca\u07f2\u07eb"], ["\u07de\u07d9", "\u07ce"], ["\u07d3", "\u07ce\u07f2"], ["es", "."], ["te", "re"], ["t", "\u1ecd"], ["sa", "i"], ["ka", "i"], ["ni", "ile"], ["n", "wa"], ["g", "ne"], ["na", "f"], ["d", "ze"], ["kp", "l\u0254"], ["\u0292", "\u025b"], ["w", "\u028b"], ["a", "gha"], ["ri", "ki"], [",", "000"], ["on", "\u00ed"], ["\u00e0", "j\u00f2"], ["amba", "yo"], ["\u07e1", "\u07cd"], ["\u07d5", "\u07ca\u07eb"], ["\u07d6\u07cc", "\u07f0"], ["\u07d8\u07ce", "\u07f2"], ["\u07e2", "\u07cd"], ["\u07d3\u07cc\u07ec", "\u07df\u07ca\u07ec"], ["\u07f4", "\u07cc"], ["\u07d5", "\u07d8\u07cd\u07ec"], ["\u07dc", "\u07d8\u07cd\u07eb"], ["\u07dd", "\u07ed"], ["t", "he"], ["yo", "yin"], ["in", "t"], ["n", "\u0269"], ["a", "va"], ["is", "si"], ["\u1240", "\u1208"], ["ge", "e"], ["on", "ni"], ["p", "ene"], ["wali", "wo"], ["san", "no"], ["al", "\u028b"], ["x", "a"], ["lu", "m"], ["zi", "ri"], ["te", "l"], ["bi", "i"], ["gi", "ra"], ["man", "yi"], ["N", "\u00ed"], ["U", "S"], ["\u07d6\u07cc\u07ec", "\u07e6\u07ca\u07ec"], ["\u07de\u07d0", "\u07f2\u07ec"], ["\u07d2", "\u07ec"], ["\u07dd", "\u07cf\u07eb"], ["\u07db", "\u07cb"], ["k", "\u00e8"], ["k", "\u00e1"], ["du", "k"], ["loka", "cin"], ["r\u1ecb", "a"], ["tan", "o"], ["ili", "yo"], ["si", "mu"], ["l", "le"], ["ko", "me"], ["'", "u"], ["n", "ge"], ["d", "he"], ["na", ","], ["k", "ko"], ["ba", "ri"], ["an", "y"], ["ba", "yi"], ["ra", ","], ["a", "ke"], ["\u12a5", "\u12e9"], ["wo", "o"], ["wan", "ga"], ["e", "kya"], ["P", "o"], ["ti", "c"], ["i", "wu"], ["1", "6"], ["dun", "iya"], ["f", "\u1ecdd\u1ee5"], ["ah\u1ee5", "."], ["\u1ee5", "wa"], ["y", "\u00ec\u00ed"], ["D", "a"], ["\u1275", "\u1295"], ["pi", "ki"], ["\u025b", "\u025b"], ["i", "z"], ["de", "e"], ["pu", "uni"], ["he", "e"], ["di", "i"], ["\u0256e", "wo"], ["se", "era"], ["ma", "tsa"], ["u", "sa"], ["1", "8"], ["sa", "ki"], ["eko", "ki"], ["\u07d3\u07ca\u07ef\u07d9", "\u07ca\u07eb"], ["\u07d8", "\u07cb\u07f2"], ["\u07d3", "\u07ce"], ["\u07d8", "\u07cf\u07ec"], ["\u07db", "\u07cc\u07ec"], ["s", "\u00e1"], ["t", "sin"], ["w", "un"], ["b", "en"], ["\u12e8", "\u121a"], ["sh", "sha"], ["n", "en"], ["e", "li"], ["ta", "ri"], ["ru", "vara"], ["w", "in"], ["yo", "."], ["me", "."], ["on", "e"], ["k", "yu"], ["ni", "\u0301"], ["2", "."], ["na-", "a"], ["o", "bere"], ["k", "w\u1ecd"], ["ok", "wu"], ["la", "kini"], ["\u07e3", "\u07d0"], ["\u07df\u07cc", "\u07f2"], ["\u07d9", "\u07cc\u07ec"], ["b", "\u1eb9\u0300"], ["d", "\u00ec"], ["z", "za"], ["a", "kan"], ["p\u1ee5", "r\u1ee5"], ["i", "bu"], ["L", "a"], ["ju", "m"], ["sala", "ka"], ["ya", "ga"], ["da", "r"], ["ad", "\u028b"], ["ku", "ta"], ["n", "n"], ["\u12d8", "\u1208"], ["m", "m"], ["tambu", "la"], ["\u12cd", "\u1295"], ["san", "o"], ["mon", "ene"], ["da", "."], ["ti", "\u0301"], ["f", "\u00e0"], ["A", "r"], ["19", "7"], ["\u201d", "."], ["ba", "yan"], ["na-", "eme"], ["ak", "w\u1ee5"], ["\u07de\u07ca\u07f2\u07ec", "."], ["\u07d3", "\u07d8\u07ca\u07eb"], ["m", "\u00fa"], ["ru", "o"], ["ki", "ka"], ["p", "ro"], ["ti", "ra"], ["iza", "y"], ["na", "\u014b"], ["e", "ke"], ["\u0256e", "ka"], ["ku", "ru"], ["ng", "'"], ["eb", "ya"], ["ko", "ko"], ["in", "ge"], ["mba", "."], ["bu", "r"], ["wa", "tu"], ["ma", "ye"], ["A", "ri"], ["ha", "i"], ["\u0301", "n"], ["\u1e63", "\u00f9"], ["F", "ran"], ["Ja", "pan"], ["K", "wa"], ["p\u1ee5", "tara"], ["se", "ma"], ["\u07e3", "\u07d0\u07ec"], ["\u07db", "\u07ca\u07f2\u07ec"], ["ho", "ro"], ["\u00ec", "d\u00e1"], ["n", "\u00ec"], ["\u0199", "wa"], ["ha", "."], ["ha", "ra"], ["ch", "ini"], ["i", "m"], ["a", "hi"], ["d", "z"], ["a", "bo"], ["enga", "ka"], ["li", "kolo"], ["vo", "vo"], ["o", "fu"], ["dan", "da"], ["mi", "si"], ["tan", "no"], ["a", "hu"], ["t", "ani"], ["gu", "u"], ["kuli", "ko"], ["tee", "ka"], ["M", "e"], ["A", "us"], ["tafi", "ya"], ["n\u2019", "ime"], ["k", "w\u1ee5"], ["ko", "kende"], ["Ba", "to"], ["mala", "di"], ["mo", "bembo"], ["\u07de", "\u07df\u07ca"], ["\u07e3", "\u07cd\u07ec"], ["\u07df", "\u07ce"], ["\u07dd", "\u07cc"], ["ma", "ti"], ["ta", "m"], ["moto", "ka"], ["\u0254", "\u0254"], ["mi", "sy"], ["a", "le"], ["to", "fa"], ["ebin", "tu"], ["tin", "o"], ["zi", "."], ["tta", "a"], ["min", "i"], ["zi", ","], ["kan", "ga"], ["\u1eb9", "gb"], ["1", "."], ["n", "le"], ["on", "we"], ["he", "mu"], ["ing", "ine"], ["\u07d5", "\u07ca\u07f2"], ["\u07d8\u07ce", "\u07ee"], ["\u07e6", "\u07cb"], ["\u07de", "\u07cc\u07ec"], ["\u07e2", "\u07cc\u07f2\u07ec"], ["\u07dd", "\u07cd"], ["ce", "l"], ["e", "ta"], ["pi", "a"], ["ts", "y"], ["ba", "ba"], ["T", "e"], ["c", "un"], ["o", "ru"], ["ti", "i"], ["t", "te"], ["J", "u"], ["ro", "si"], ["ki", "wa"], ["m", "\u025b"], ["a", "ye"], ["m", "\u0254"], ["ri", "."], ["gen", "da"], ["ko", "ye"], ["b", "\u00f2"], ["S", "te"], ["eti", "ti"], ["u", "gwu"], ["hita", "ji"], ["\u07db", "\u07cd"], ["\u07e0\u07ca\u07eb", "."], ["\u07e2", "\u07cc\u07e3\u07cc\u07f2"], ["\u07d5\u07ca\u07ef\u07e1\u07ca", "\u07d8\u07d0"], ["\u07e1", "\u07cc"], ["r", "\u1ecd\u0300"], ["r", "\u00e8"], ["\u0257", "e"], ["O", "nye"], ["\u1ecd", "r\u1ecba"], ["\u1290", "\u12cd\u1362"], ["te", "na"], ["po", "\u0254"], ["bi", "\u014b"], ["ze", "\u014b"], ["ro", "so"], ["C", "o"], ["\u12a0", "\u1295"], ["N", "y"], ["e", "tu"], ["wo", "."], ["ra", "ti"], ["ba", "si"], ["M", "an"], ["sh", "\u025b"], ["bi", "a"], ["bo", "da"], ["ya", "ma"], ["mo", "ke"], ["ol", "\u00f3"], ["w\u00ed", "p\u00e9"], ["t", "\u00fan"], [")", ","], ["kilo", "mita"], ["san", "za"], ["lu", "ki"], ["\u07de\u07cb\u07df\u07cb\u07f2", "\u07eb"], ["\u07dd", "\u07e3\u07ca\u07eb"], ["\u07d8", "\u07cb\u07ec"], ["k", "\u00ec"], ["c", "al"], ["ju", "u"], ["bi", "bi"], ["tan", "ga"], ["r", "\u025b"], ["yi", "."], ["l", "enge"], ["en", "u"], ["\u025b", "di"], ["n", "h"], ["r", "ana"], ["k", "wi"], ["ba", "y"], ["\u1290", "\u1275"], ["k", "po"], ["r", "we"], ["le", ","], ["la", "ba"], ["H", "o"], ["yan", "si"], ["te", "li"], ["o", "\u0300"], ["r", "\u00f3"], ["r\u00e1", "n"], ["Jo", "h"], ["ki", "a"], ["8", "0"], ["kama", "r"], ["ya", "yin"], ["loba", "ki"], ["\u07d9", "\u07cf"], ["\u07e3", "\u07ca\u07f2\u07ec"], ["\u07d3", "\u07f4"], ["\u07e1", "\u07cc\u07ec\u07d8\u07ca\u07ec"], ["\u07e2\u07d0\u07f2", "\u07ef"], ["\u1209", "\u1362"], ["mo", "bi"], ["mi", "i"], ["u", "tti"], ["ka", "m"], ["ma", "ri"], ["d", "ro"], ["bi", "ti"], ["bi", "sa"], ["ha", "wa"], ["N", "ga"], ["a", "to"], ["in", "da"], ["lii", "ga"], ["p", "p"], ["n", "tu"], ["n'", "i"], ["ki", "ti"], ["ku", "pi"], ["s", "ta"], ["u", "we"], ["mbu", "la"], ["moko", "lo"], ["\u00e8", "d\u00e8"], ["\u00ec", "l\u00fa"], ["er", "\u00e9"], ["t", "\u1ecd\u0300"], ["f", "\u1eb9\u0301"], ["h", "\u00e0n"], ["(", "N"], ["ar", "\u1ee5"], ["se", "hemu"], ["kawa", "ida"], ["fan", "ya"], ["hi", "vyo"], ["\u07d9", "\u07ce\u07f2\u07ec"], ["\u07db", "\u07cc\u07eb"], ["\u07e6", "\u07df\u07cd\u07ec"], ["\u1ecd", "d\u00fan"], ["su", "."], ["ba", "bu"], ["li", "li"], ["g", "ho"], ["fo", "\u0254"], ["la", "ga"], ["\u1273", "\u1275"], ["\u1265", "\u122d"], ["q", "a"], ["l", "\u028b"], ["mi", "ke"], ["ga", "li"], ["d", "uni"], ["\u0292", "i"], ["gb", "\u0254"], ["bo", "o"], ["fa", "an"], ["A", "ma"], ["ma", "bo"], ["di", "ri"], ["\u025b", "f"], ["I", "n"], ["N", "'"], ["ko", ","], ["lon", "go"], ["fa", "ri"], ["\u1ecd\u0300", "p\u1ecd\u0300"], ["\u00ec", "gb\u00e0"], ["l", "\u00f9"], ["f", "\u00fa"], ["Aus", "tra"], ["e", "ji"], ["\u0257", "in"], ["ak\u1ee5", "k\u1ee5"], ["u", "soro"], ["akw\u1ee5", "kw\u1ecd"], ["nti", "na"], ["\u07e2", "\u07ca\u07ec"], ["\u07d6", "\u07e1\u07ca\u07ec"], ["\u07df\u07ca\u07eb", "\u07f8"], ["\u07dc", "\u07ca"], ["c", "en"], ["m", "b"], ["sh", "ine"], ["hu", "su"], ["en", "ya"], ["ba", "ti"], ["n", "nu"], ["\u0254", "re"], ["mi", "loko"], ["q", "aba"], ["hi", "ri"], ["x", "aa"], ["u", "ye"], ["wa", "g"], ["dda", "la"], ["ku", "fa"], ["mu", "k"], ["an", "si"], ["mba", ","], ["si", "a"], ["\"", "."], ["dha", "a"], ["ki", "i"], ["ly", "mpi"], ["ya", "wa"], ["kasan", "ce"], ["wa", "ke"], ["i", "gwe"], ["gha", "ra"], ["kacha", "s\u1ecb"], ["ene", "o"], ["kota", "la"], ["ko", "zala"], ["\u07e6", "\u07cc\u07ec\u07d8\u07ca\u07ec"], ["\u07de", "\u07d8\u07d0\u07eb"], ["\u07de\u07ce\u07f2\u07ec", "\u07e0\u07ca\u07ec"], ["\u07f4", "\u07cf\u07ec"], ["\u07e2", "\u07d0"], ["\u07dd", "\u07d8\u07ca\u07ec"], ["\u07d8", "\u07cd\u07f2"], ["fo", "r"], ["c", "ar"], ["m\u00e9", "j\u00ec"], ["i", "\u1e63\u1eb9\u0301"], ["n\u00ed", "pa"], ["s", "\u00e8"], ["tin", "ye"], ["an", "\u1ecd"], ["s", "wa"], ["e", "loko"], ["s", "\u0254"], ["ra", "ba"], ["ri", "na"], ["go", "."], ["emi", "ti"], ["se", "\u025b"], ["e", "se"], ["sh", "an"], ["x", "\u0254"], ["mba", "li"], ["kp", "\u0254"], ["k", "'"], ["se", "bwa"], ["bu", "ru"], ["ba", "ya"], ["k", "pe"], ["u", "si"], ["men", "ti"], ["g", "ine"], ["j", "\u00e0"], ["2", "4"], ["G", "ran"], ["mo", "kili"], ["\u07d5\u07cc", "\u07ee"], ["\u07de\u07cf", "\u07df\u07ca"], ["\u07e6", "\u07cc\u07ec"], ["\u07d9", "\u07d0"], ["\u07dd", "\u07df\u07d0"], ["\u07de", "\u07cd\u07ec"], ["\u07d8\u07cc\u07eb", "\u07f8"], ["\u07ef", "\u07e6\u07ca\u07eb"], ["\u07d8", "\u07f4\u07ca\u07ec"], ["\u07d6", "\u07d0"], ["\u07de\u07ca", "\u07e1\u07ca\u07ec"], ["o", "f"], ["sa", "mun"], ["m", "kpa"], ["a", "ki"], ["ge", "za"], ["\u121d", "\u1235"], ["un", "e"], ["a", "cel"], ["ira", "y"], ["a", "o"], ["D", "u"], ["n", "yi"], ["de", "\u025b"], ["m", "mi"], ["h", "ana"], ["x", "e"], ["m", "oni"], ["ko", "sa"], ["mbo", "la"], ["ir", "ra"], ["\u025b", "dini"], ["\u2019", "a"], ["wa", "la"], ["mi", "l"], ["ji", "ra"], ["sa", "."], ["gu", "ru"], ["bi", "ka"], ["du", "u"], ["as", "si"], ["b", "bo"], ["ma", "t"], ["on", "ga"], ["mu", "tu"], ["\u00ec", "l"], ["O", "lympi"], ["y", "\u00e8"], ["k", "m"], ["Joh", "n"], ["3", "0"], ["kasa", "r"], ["shi", "ga"], ["nd", "\u1ee5"], ["\u1ee5", "f\u1ecdd\u1ee5"], ["nji", "a"], ["yin", "za"], ["zan", "yo"], ["\u07d5\u07ca", "\u07ee"], ["le", "a"], ["bi", "le"], ["p", "h"], ["da", "u"], ["pu", "ru"], ["n'", "e"], ["ke", "a"], ["hu", "u"], ["\u12cb", "\u120d\u1362"], ["ko", "mona"], ["vi", "ta"], ["ha", "ka"], ["te", "\u025b"], ["to", ","], ["p", "on"], ["ba", "se"], ["\u12ae", "\u12ed"], ["ma", "tu"], ["baa", "da"], ["q", "aa"], ["wi", "re"], ["e", "\u014b"], ["i", "do"], ["ban", "de"], ["hu", "ru"], ["mu", "sa"], ["an", "da"], ["e", "sale"], ["G", "o"], ["D", "o"], ["ku", "a"], ["s\u00ed", "l\u1eb9\u0300"], ["U", "ni"], ["ta", "lo"], ["kwa", "ra"], ["\u1ecd", "ch\u1ecb"], ["\u07db", "\u07ce\u07ec"], ["\u07e7", "\u07ca"], ["\u07d9", "\u07cd"], ["\u07df\u07ca", "\u07e5"], ["\u07df", "\u07d1"], ["\u07db\u07d0", "\u07f2\u07ec"], ["\u07d8", "\u07cb"], ["le", "te"], ["d", "\u00fa"], ["bu", "n"], ["she", "kara"], ["\u1278", "\u12cd"], ["e", "g"], ["ku", "."], ["ma", "ro"], ["a", "bi"], ["g", "wo"], ["\u1240\u1208", "\u121d"], ["ra", "gu"], ["m", "-"], ["to", "a"], ["gu", "da"], ["\u0192", "o"], ["an", "ni"], ["ta", "la"], ["t", "so"], ["ba", "k"], ["e", "ve"], ["\u1275", "\u12ee"], ["fa", "a"], ["muli", "mu"], ["pu", "ta"], ["bu", "ka"], ["kole", "bwa"], ["ba", ","], ["ja", "mi"], ["p", "ani"], ["a", "zo"], ["sa", "ma"], ["i", "we"], ["p", "\u00fa"], ["2", ","], ["\u00e0", "\u00e0"], ["-", "G"], ["\u00e9", "\u0323"], ["han", "yar"], ["m", "gba"], ["n", "chi"], ["amba", "o"], ["nde", "ge"], ["tofa", "uti"], ["\u07df\u07d0\u07f2", "\u07eb"], ["\u07db\u07ca\u07f2", "\u07e1\u07ca"], ["\u07dd\u07cd\u07ec", "."], ["\u07ce\u07f2", "\u07eb"], ["t", "y"], ["\u00e0", "k\u00f3"], ["\u1ecd", "g"], ["to", "."], ["\u1245", "\u122d"], ["pi", "i"], ["ky\u025b", "n"], ["la", "s"], ["bo", "l"], ["z", "ana"], ["ke", "essa"], ["ho", "o"], ["si", "si"], ["ru", "ba"], ["l", "we"], ["ku", "le"], ["o", "go"], ["hari", "ho"], ["ga", "rin"], ["po", "rt"], ["fu", "ta"], ["dan", "o"], ["gi", "tye"], ["gi", "r"], ["yo", ","], ["go", ","], ["di", "o"], ["da", "ra"], ["s", "te"], ["wa", "\u0257an"], ["hu", "wa"], ["bi", "tu"], ["e", "ro"], ["gi", "sa"], ["T", "ur"], ["\u00ec", "d\u00ed"], ["k", "\u1eb9"], ["y", "\u00e1"], ["\u1ecd\u0300", "n\u00e0"], ["s", "\u00f9"], ["O", "li"], ["jir", "gin"], ["nu", "na"], ["\u1ecdch\u1ecb", "ch\u1ecb"], ["ah\u1ee5", ","], ["\u1ee5", "d\u1ecb"], ["vi", "le"], ["mingi", ","], ["\u07de\u07d0", "\u07f0"], ["\u07db", "\u07cd\u07f2"], ["\u07d6\u07ca\u07ec", "\u07d5\u07cb\u07ec"], ["\u07d3\u07ca", "\u07df\u07cc"], ["\u07e1", "\u07cc\u07ec"], ["\u07de\u07e3\u07d0\u07eb", "."], ["\u07d5\u07ce\u07ec", "\u07e1\u07ca"], ["\u07dc", "\u07cb\u07df\u07cb\u07f2"], ["\u07e6", "\u07cc\u07eb"], ["\u07d8\u07d0", "\u07d9"], ["ti", "on"], ["i", "b"], ["pa", "d\u00e0"], ["u", "gbo"], ["ka", "b"], ["T", "a"], ["ma", "ji"], ["kari", "bu"], ["\u1208", "\u12cd"], ["'", "e"], ["az", "\u025b"], ["de'", "iya"], ["sin", "zi"], ["\u12ab", "\u1265"], ["W", "o"], ["ha", "la"], ["b", "wo"], ["ban", "di"], ["je", "ru"], ["ka", "re"], ["t", "tu"], ["b", "\u0269"], ["ebe", "le"], ["\u1265", "\u12d9"], ["po", "l"], ["ani", "i"], ["ba", "dde"], ["le", "le"], ["K", "ati"], ["T", "i"], ["enge", "li"], ["kwa", "ta"], ["ke", "re"], ["abu", "bu"], ["yan", "ge"], ["da", "i"], ["p", "\u1eb9"], ["k", "\u00f9n"], ["s", "co"], ["7", ","], ["ga", "ban"], ["nye", "re"], ["omu", "me"], ["\u1ecd", "d\u1ecb"], ["saba", "bu"], ["sale", "la"], ["\u07db\u07d0\u07ec\u07d8\u07d0", "\u07f2"], ["\u07d3", "\u07d8\u07cd\u07ec"], ["\u07db", "\u07cc\u07f2"], ["\u07d3\u07ca", "\u07cf\u07ec"], ["\u07e1\u07d0", "\u07f1"], ["\u07df", "\u07cf\u07ec"], ["t", "ran"], ["t", "\u00ec"], ["d\u00ed", "n"], ["t", "\u1ecd\u0301"], ["mu", "r"], ["la", "mu"], ["m", "k"], ["H", "u"], ["ha", "di"], ["\u1260", "\u1275"], ["v", "y"], ["na", "zo"], ["e", "o"], ["jwa", "ire"], ["ne", "ti"], ["gu", "r"], ["ka", "\u014b"], ["d", "ana"], ["e", "a"], ["\u1266", "\u1273"], ["z", "ungu"], ["d", "hu"], ["e", "gi"], ["cha", "a"], ["gi", "de"], ["a", "maa"], ["lu", "ka"], ["en", "jawulo"], ["e", "ru"], ["ko", "o"], ["ya", "u"], ["oku", "beera"], ["ka", "l"], ["lan", "de"], ["ki", "mi"], ["C", "u"], ["yon", "na"], ["gb", "\u00f3"], ["s", "\u1eb9\u0300"], ["1", "00"], ["s", "\u1eb9"], ["D", "un"], ["bin", "ci"], ["matsa", "yin"], ["ya", "dda"], ["wa", "jen"], ["\u1ecd", "\u1ecd"], ["s", "\u1ee5"], ["n", "gosi"], ["u", "me"], ["\u07d3", "\u07ca\u07f2\u07eb"], ["\u07d9", "\u07ca\u07ec"], ["\u07d3\u07ca", "\u07ee"], ["\u07de", "\u07d0\u07eb"], ["\u07d5\u07cd", "\u07ee"], ["\u07e5", "\u07ce"], ["\u07de\u07ce\u07f2", "\u07dd\u07ca\u07f2"], ["\u07de", "\u07cc\u07eb"], ["\u07dd", "\u07ce"], ["\u07d6", "\u07d0\u07f2"], ["l", "d"], ["t", "."], ["\u1ecd", "j\u1ecd\u0301"], ["k", "\u1ecd\u0300"], ["he", "re"], ["naf", "tira"], ["mu", "u"], ["ni", "mi"], ["d\u0254", "\u0254"], ["k", "yen"], ["cun", "g"], ["ta", "l"], ["za", "\u014b"], ["ga", "l"], ["ch", "in"], ["kan", "o"], ["ka", "ki"], ["\u12ae\u12ed", "\u1291"], ["g", "hu"], ["gi", "ri"], ["l", "lu"], ["k", "wo"], ["do", "k"], ["\u014b", "\u0254"], ["muk", "ene"], ["e", "yo"], ["z", "in"], ["mbe", "era"], ["lu", "ku"], ["e", "mu"], ["oku", "singa"], ["lo", "."], ["A", "na"], ["ma", "hali"], ["\u00ec", "\u1e63"], ["gb", "\u1ecd\u0301n"], ["lo", "ri"], ["cha", "ra"], ["ban", "we"], ["m", "b\u1ee5"], ["n", "gwa"], ["hu", "o"], ["\u07d9", "\u07cb"], ["\u07d5\u07ce", "\u07e1\u07ca"], ["\u07e2", "\u07cd\u07eb"], ["\u07f5", "\u07ca\u07ec"], ["\u07d3\u07ca\u07ef\u07d9", "\u07ca"], ["\u07e0", "\u07cb\u07eb"], ["\u1e63", "\u00e0"], ["l", "\u1eb9"], ["naan", "\u1ecb"], ["wu", "ra"], ["ahi", "tana"], ["ire", "o"], ["ye", ","], ["o", "gi"], ["\u1290", "\u132d"], ["fi", "r"], ["ma", "te"], ["a", "w\u028b"], ["z", "v"], ["n", "kwa"], ["ban", "o"], ["l", "un"], ["v", "\u025b"], ["i", "zi"], ["ar", "ga"], ["pa", "ka"], ["ge", "ra"], ["pa", "\u0263a"], ["o", "di"], ["ba", "te"], ["d", "d"], ["bin", "o"], ["zi", "e"], ["n", "gu"], ["da", "ri"], ["j", "jo"], ["san", "ya"], ["ba", "ka"], ["sa", "yen"], ["po", "ti"], ["ti", "bwa"], ["be", "ko"], ["m", "wen"], ["k", "\u00e0"], ["gb", "\u00f2"], ["\u00f2", "fin"], ["ko", "ki"], ["5", "0"], ["tsa", "rin"], ["mu", "tane"], ["zan", "ga"], ["at", "\u1ecd"], ["kwu", "ru"], ["N", "ke"], ["mna", "mo"], ["lo", "lenge"], ["enda", "ka"], ["So", "ki"], ["n\u2019", "oku"], ["\u07de\u07ce\u07ec", "\u07d9\u07ce\u07f2\u07ec"], ["\u07d5", "\u07cb\u07f2\u07ec"], ["\u07dd\u07cb\u07f2", "\u07eb"], ["\u07db\u07cf", "\u07ef\u07d9"], ["\u07d7", "\u07cf"], ["\u07d9", "\u07cd\u07ec"], ["\u07d5", "\u07cf\u07f2"], ["\u07d8\u07d0\u07d9", "\u07d0\u07f2\u07eb"], ["n", "ing"], ["zu", "ri"], ["mwa", "ka"], ["pi\u025b", "lli"], ["dda", "a"], ["d", "han"], ["gha", "li"], ["t", "\u028b"], ["gi", "da"], ["s", "eni"], ["n", "ana"], ["d", "y"], ["do", ","], ["bo", "ye"], ["\u12f0", "\u1235"], ["su", "bi"], ["mbi", "li"], ["ku", "ni"], ["ruba", "ju"], ["t", "ini"], ["\u1230", "\u121b"], ["\u12a0", "\u1228"], ["p", "fe"], ["g", "han"], ["ebi", "ra"], ["a", "du"], ["mu", "twe"], ["asi", ","], ["yi", "ri"], ["\u1273", "\u12ed"], ["wo", "y"], ["aba", "ana"], ["e", "yi"], ["ga", "."], ["E", "za"], ["y", "wa"], ["o", "gun"], ["n", "zi"], ["p", "ho"], ["zi", "bwa"], ["di", "ka"], ["pe", "pe"], ["or\u00ed", "l\u1eb9\u0300"], ["\u00e8", "t\u00f2"], ["m\u00e1", "a"], ["kan", "in"], ["gi", "yar"], ["kp", "\u1ecd"], ["any", "\u1ecb"], ["na-", "ak"], ["sa", "yansi"], ["kwan", "za"], ["kani", "si"], ["mo", "sala"], ["\u07dd", "\u07cf\u07f2\u07ec"], ["\u07e6\u07d9", "\u07d0\u07eb"], ["\u07d9", "\u07cc\u07f2"], ["\u07e5\u07d9", "\u07cf\u07ec"], ["\u07d8\u07ce", "\u07f2\u07ec"], ["\u07e6\u07d9\u07cc", "\u07de\u07ca\u07eb"], ["\u07de\u07ce", "\u07d8\u07ce\u07f2"], ["\u07e2\u07d0\u07f2", "\u07ee"], ["\u07d3", "\u07cf\u07ec"], ["\u07dd\u07ca\u07ec", "\u07d8\u07cc\u07ec"], ["se", "r"], ["n\u00ed", "gb\u00e0"], ["s\u1ecb", "r\u1ecb"], ["tu", "."], ["\u1276", "\u127d"], ["'", "i"], ["ten", "g"], ["du", "mma"], ["a", "b\u0254"], ["bi", "so"], ["t", "ro"], ["pu", "ori"], ["do", "o"], ["ni", "pa"], ["wa", "l"], ["o", "bwa"], ["keessa", "tti"], ["ye", "roo"], ["ts", "\u025b"], ["si", "ma"], ["da", "ba"], ["sa", ","], ["\u1263", "\u1205"], ["d\u0269", "n\u0269"], ["a", "man"], ["bu", "lungi"], ["gu", "zi"], ["ma", "p"], ["l", "wo"], ["li", "ka"], ["di", ","], ["pan", "de"], ["s", "ka"], ["na", "u"], ["b", "li"], ["y", "\u1ecd"], ["koye", "ba"], ["za", "r"], ["re", "si"], ["H", "ar"], ["w\u00f2", "r\u00e1n"], ["k", "\u00fa"], ["f", "\u00ed"], ["per", "-G"], ["3", "6"], ["H", "ai"], ["P", "i"], ["Oli", "mpi"], ["G", "P"], ["5", "."], ["da", "ban"], ["nnu", "kwu"], ["nyo", "cha"], ["ton", "go"], ["\u07de\u07e3", "\u07cd"], ["\u07dc", "\u07cb"], ["\u07e3\u07cd", "\u07f2\u07ec"], ["\u07db", "\u07ca\u07eb"], ["\u07d3\u07ca", "\u07f0"], ["\u07dd\u07ca\u07f2", "\u07ed"], ["\u07e3\u07cc\u07f2", "\u07eb"], ["b", "\u1ecd\u0300"], ["\u1ecd", "m\u1ecd"], ["al", "\u00e1"], ["do", "ro"], ["hi", "i"], ["t", "\u00e9"], ["g", "ra"], ["zi", "mbe"], ["h", "w\u025b"], ["\u1213", "\u12f0"], ["dzi", "."], ["ele", "ko"], ["k", "y"], ["ti", "na"], ["ma", "b"], ["ta", "bi"], ["ne", "t"], ["p", "\u0254ge"], ["no", "."], ["\u120b", "\u12ca"], ["bi", "si"], ["yi", "ta"], ["ak", "\u0254"], ["n", "go"], ["e", "bu"], ["ku", "bo"], ["ko", "ze"], ["lo", "go"], ["ny", "\u0254nu"], ["x", "x"], ["tu", "o"], ["pi", "ira"], ["V", "an"], ["e", "sali"], ["o", "me"], ["mbu", "zi"], ["ko", "zesa"], ["re", "fu"], ["u", "ro"], ["son", "ga"], ["w\u1ecd", "\u0300"], ["to", "r\u00ed"], ["l\u00e1", "ra"], ["m", "\u00ec"], ["\u1eb9\u0300", "r\u1ecd"], ["C", "a"], ["\u1eb9\u0301", "\u1eb9\u0300"], ["C", "ana"], ["ai", "ki"], ["i", "dan"], ["r\u1ecb", "ta"], ["osi", "miri"], ["banye", "gh\u1ecb"], ["nd", "\u1ecdr\u1ecd"], ["l", "\u1ee5"], ["ji", "a"], ["ku", "husu"], ["bako", "ki"], ["\u07d6\u07ca\u07ef", "\u07d3"], ["\u07e1\u07ce", "\u07e3"], ["\u07df\u07ca", "\u07d3\u07ca\u07ef\u07d9\u07ca\u07eb"], ["\u07d3", "\u07cf\u07f2\u07ec"], ["\u07de", "\u07d0\u07f2"], ["\u07e6", "\u07df\u07cc"], ["\u07d8\u07cd\u07ec", "\u07e3\u07cd\u07f2"], ["\u07dd\u07d9", "\u07cd"], ["\u07d3", "\u07df\u07cb"], ["\u07de\u07ce\u07f2", "\u07ed"], ["loka", "ci"], ["mu", "hi"], ["kya", "u"], ["\u0257", "u"], ["ende", "ke"], ["q", "abu"], ["W", "\u0254"], ["N", "o"], ["g", "le"], ["so", "na."], ["s", "ke"], ["nga", "m"], ["ak", "ka"], ["\u014b", "un"], ["a", "mu"], ["da", "la"], ["e", "vi"], ["le", "el"], ["ik", "ki"], ["\u12eb", "\u12ca"], ["ma", "shi"], ["ba", "i"], ["mu", "mu"], ["\u12f5", "\u121b"], ["zo", "to"], ["n", "on"], ["W", "an"], ["zi", "ki"], ["li", "ra"], ["\u1218", "\u1295"], ["mu", "ka"], ["ba", "so"], ["r", ","], ["L", "u"], ["be", "ra"], ["qu", "u"], ["wana", "."], ["ja", "li"], ["ba", "san"], ["ku", "san"], ["te", "ri"], ["fu", "ru"], ["k", "wen"], ["gan", "ya"], ["wan", "di"], ["ne", "."], ["1", "0"], ["m", "fu"], ["r", "d"], ["\u01f9", "kan"], ["s", "\u1ecd\u0300"], ["fi", "h\u00e0n"], ["\u00ec", "w\u00e9"], ["l\u1ecd", "p\u1ecd\u0300"], ["se", "li"], ["sa", "fari"], ["ya", "won"], ["gba", "sara"], ["\u1ecb", "n"], ["sala", "ki"], ["aza", "laki"], ["\u07d3", "\u07cf"], ["\u07d5", "\u07d0\u07f2"], ["\u07c1", "\u07c9"], ["\u07df\u07cb", "\u07f2\u07ec"], ["\u07db", "\u07d3\u07cd\u07eb"], ["\u07de", "\u07cb"], ["\u07d3", "\u07cd\u07ec"], ["\u07de\u07e3", "\u07d0"], ["\u07df\u07d0\u07f2", "\u07de\u07cf"], ["\u07d5", "\u07cc\u07f2\u07ec"], ["\u07d6", "\u07ca\u07f2"], ["\u07e0", "\u07cc\u07f2\u07ec"], ["\u07d9", "\u07cf\u07f2\u07ec"], ["\u07d7", "\u07cb"], ["s", "\u00e0n"], ["o", "w\u00f3"], ["a", "j"], ["kar\u1ecb", "a"], ["u", "zi"], ["nd", "ani"], ["n", "ne"], ["lo", "o"], ["za", "li"], ["h\u0254", "."], ["ru", "gavu"], ["yi", ","], ["a", "de"], ["ca", "lo"], ["w\u0254", "re"], ["be", "b"], ["\u1218", "\u12f0"], ["ma", "c"], ["\u12d3", "\u12ed"], ["\u121d", "\u1295"], ["g", ","], ["po", "li"], ["n'", "omu"], ["k", "h"], ["l", "ani"], ["da", "l"], ["da", "ya"], ["wan", "vu"], ["\u014b", "o"], ["t", "to"], ["\u12a0\u1228", "\u1295"], ["\u12a0\u1228\u1295", "\u1313"], ["\u12a0\u1228\u1295\u1313", "\u12f4"], ["mp", "ani"], ["te", "te"], ["p", "hi"], ["eb", "y'"], ["pa", "\u0263"], ["\u014bu", "tsu"], ["to", "ka"], ["o", "ro"], ["g", "w'"], ["s", "to"], ["\u12a3", "\u1208"], ["faan", "anyi"], ["wo", "le"], ["e", "tali"], ["6", "4"], ["I", "ssi"], ["i", "lu"], ["\u0256", "u"], ["lo", "bi"], ["3", ","], ["pan", "e"], ["m", "bongo"], ["mu", "da"], ["ba", "lin"], ["l", "ing"], ["\u0323", "n"], ["\u00e8", "n\u00ec"], ["gb", "\u00ec"], ["\u00f2", "k\u00e8"], ["l", "\u00ed"], ["d", "\u00f2"], ["Su", "per-G"], ["Ne", "w"], ["m", "\u00fan"], ["R", "un"], ["sa", "boda"], ["tsa", "kanin"], ["an", "\u1ee5"], ["in", "we"], ["o", "zo"], ["n'", "otu"], ["pa", "moja"], ["ili", "kuwa"], ["mi", "kili"], ["\u07dd", "\u07cc\u07f2\u07ec"], ["\u07db", "\u07d8\u07cd"], ["\u07e3", "\u07f4\u07cc"], ["\u07e1", "\u07d9\u07cc"], ["\u07df", "\u07cd\u07f2"], ["r", "s"], ["d\u00e1", "ra"], ["o", "y"], ["g", "\u00fan"], ["pa", "r\u00ed"], ["j\u00f9", "l\u1ecd"], ["ka", "fin"], ["\u0199", "i"], ["tu", "pu"], ["az", "\u1ee5"], ["ha", "ta"], ["u", "u"], ["d", "ho"], ["do", "."], ["ku", "re"], ["p", "\u025b"], ["h", "y"], ["k", "pu"], ["iz", "y"], ["\u0292\u025b", "ya"], ["chu", "u"], ["k", "\u025b"], ["ama", "zzi"], ["gi", "."], ["rati", "dza"], ["en", "n"], ["a", "y\u025b"], ["ni", "ma"], ["b", "\u028b"], ["R", "i"], ["s", "so"], ["yin", "e"], ["gi", "di"], ["gu", "li"], ["bi", "sha"], ["ek", "ye"], ["o", "gwa"], ["fe", "e"], ["da", "m"], ["ga", "ti"], ["n", "ko"], ["mi", "ti"], ["wa", "ra"], ["bo", "yo"], ["co", "u"], ["ta", "k"], ["ti", "ki"], ["ko", "ka"], ["si", "\u0301"], ["\u00e8n\u00ec", "y\u00e0n"], ["r", "\u1eb9\u0301"], ["p", "\u00edn"], ["b", "\u00e0"], ["j\u00e1", "de"], ["\u00e0n", "\u00e0"], ["p", "\u1eb9\u0301"], ["la", "\u0301"], ["1", ","], ["a", "gb\u00e8"], ["\u00e8", "\u0323"], ["Olympi", "c"], ["ru", "fu"], ["Austra", "lia"], ["5", "00"], ["Af", "rika"], ["y", "yar"], ["vi", "sa"], ["t\u1ee5", "ta"], ["uli", "o"], ["ba", "pa"], ["mingi", "."], ["yange", "li"], ["fan", "da"], ["s", "enga"], ["mpe", "po"], ["\u07e7", "\u07ca\u07ec"], ["\u07de\u07cf", "\u07e2\u07ca"], ["\u07d6\u07e1\u07ca\u07ec", "\u07e3\u07ca"], ["\u07ca", "\u07f0"], ["\u07c2", "\u07c0"], ["lo", "w"], ["t", "\u00e1"], ["d", "\u00f3"], ["ya", "ra"], ["ok", "puru"], ["na-", "enye"], ["e", "go"], ["mi", "aka"], ["\u12a0", "\u1208"], ["s", "se"], ["ata", "r"], ["k", "."], ["n'", "a"], ["e", "i"], ["y", "\u0254"], ["M", "is"], ["nazo", "mona"], ["\u1240", "\u12ed"], ["l", ","], ["yu", "mba"], ["\u12c8", "\u1295"], ["ana", "."], ["k", "hun"], ["ri", "ri"], ["a", "lu"], ["ri", ","], ["me", "tsi"], ["di", "gbo"], ["aka", "ti"], ["n'", "en"], ["\u1263\u1205", "\u120b\u12ca"], ["ni", "\u014b"], ["wo", "r"], ["yu", "u"], ["\u0256", "i"], ["u", "la"], ["mu", "un"], ["\u12a2", "\u1275\u12ee"], ["du", "m"], ["n", "kan"], ["z", "'"], ["b", "y'"], ["ba", "gga"], ["A", "si"], ["k", "y'"], ["oku", "ba"], ["Z", "i"], ["aba", "la"], ["obu", "tono"], ["ji", ","], ["la", "fi"], ["ki", "fo"], ["c", "ke"], ["K", "ama"], ["n", "ka"], ["wa", "si"], ["S", "ta"], ["u", "cha"], ["za", "man"], ["nin", "u"], ["k", "\u00f9"], ["d\u00fa", "r\u00f3"], ["g\u1eb9\u0301", "g\u1eb9\u0301"], ["k", "\u00e0n"], ["B", "el"], ["u", "th"], ["o", "\u0301"], ["6", ","], ["B", "er"], ["\u00ec", "w\u00e1"], ["k\u1ecd", "ta"], ["N", "or"], ["I", "ndi"], ["jira", "gen"], ["I", "dan"], ["san", "nan"], ["hu", "du"], ["hi", "yo"], ["k\u1ecd", "r\u1ecbta"], ["\u1ee5", "b\u1ecd"], ["yan", "w\u1ee5"], ["\u1ecdn", "\u1ecdd\u1ee5"], ["n", "n\u1ecd"], ["I", "he"], ["\u1ecb", "t\u1ecb"], ["gburu", "gburu"], ["\u1ecdk", "\u1ee5"], ["\u1ecdb\u1ee5", "la"], ["ku", "fi"], ["ko", "zwa"], ["li", "susu"], ["boyo", "kani"], ["e", "bongi"], ["baza", "laki"], ["ma", "sano"], ["soo", "ka"], ["\u07d3", "\u07df\u07d0"], ["\u07d8\u07ca\u07f2\u07ec", "\u07e0\u07ca"], ["\u07d6", "\u07d8\u07cd\u07ec"], ["\u07dd\u07ca\u07f2\u07ec", "\u07d3\u07ca"], ["\u07d9", "\u07ca\u07f2\u07ec"], ["\u07de\u07ce\u07f2\u07dd\u07ca\u07f2", "\u07d3\u07d0"], ["\u07d3\u07df\u07cf", "\u07e1\u07ca\u07ec"], ["\u07d3\u07f4", "\u07e6\u07cb\u07f2\u07ec"], ["\u07d3\u07ce\u07f2", "\u07d3\u07ce\u07f2"], ["\u07d5\u07ca\u07ef\u07e1\u07ca\u07d8\u07d0", "\u07d5\u07ca\u07ee"], ["a", "c"], ["a", "se"], ["\u1e63", "\u1eb9"], ["l\u1ecd\u0301", "w\u1ecd\u0301"], ["r", "\u00e0"], ["shi", "rin"], ["ka", "ru"], ["\u1ecdg", "w\u1ee5"], ["ch\u1ecd", "p\u1ee5ta"], ["un", "o"], ["zili", "zo"], ["\u12a8", "\u121d"], ["\u1348", "\u120b"], ["v", "en"], ["she", "ba"], ["M", "ana"], ["na", "ma"], ["b", "lu"], ["ghali", "gho"], ["k\u0254", "k\u0254"], ["mwa", "si"], ["n", "na"], ["mmi", "enu"], ["beb", "ree"], ["ar", "an"], ["a", "tu"], ["e", "qq"], ["p", "\u0254"], ["fo", "to"], ["u", "ffa"], ["nya", "anga"], ["\u1241", "\u122d"], ["'", "ne"], ["si", "ko"], ["so", ","], ["bu", "u"], ["yon", "yi"], ["\u12d8\u1208", "\u12ce"], ["we", "e"], ["\u1230\u121b", "\u12eb\u12ca"], ["na", "ati"], ["zvi", "mbo"], ["di", "li"], ["t", "r"], ["nda", "ko"], ["g", "bi"], ["ma", "pol"], ["tu", "na"], ["I", "I"], ["mu", "l"], ["te", "k"], ["en", "di"], ["m", "w"], ["B", "an"], ["ba", "ki"], ["sa", "mi"], ["mu", "ma"], ["min", "ene"], ["t", "ron"], ["C", "ha"], ["zi", "bu"], ["lan", "da"], ["yango", "."], ["oku", "funa"], ["B", "ri"], ["m", "\u00f2"], ["sh", "ing"], ["A", "ir"], ["k\u1ecd\u0301", "k\u1ecd\u0301"], ["T", "A"], ["G", "e"], ["Pa", "ki"], ["V", "i"], ["kawa", "i"], ["wa", "danda"], ["su", "ke"], ["ma", "sha"], ["\u1ee5b\u1ecd", "ch\u1ecb"], ["nwe", "e"], ["\u1ecd", "s\u1ecd"], ["p", "ya"], ["hu", "si"], ["sin", "gi"], ["nda", "kisa"], ["ko", "salela"], ["buli", "jjo"], ["\u07db", "\u07cc\u07f2\u07ec"], ["\u07d5\u07cc", "\u07ef"], ["\u07e2\u07e3\u07ca", "\u07d5\u07ca"], ["\u07db\u07d1", "\u07d5"], ["\u07d5", "\u07f4"], ["\u07d5\u07cc\u07f2\u07ec", "\u07de\u07ce\u07d8\u07ce\u07f2"], ["\u07d3", "\u07cb"], ["\u07dd\u07cc\u07ec", "\u07df\u07ca"], ["\u07d8\u07ce", "\u07ef"], ["c", "on"], ["t", "ri"], ["l\u00e1", "\u00e0"], ["wan", "e"], ["ri", "ba"], ["ek", "wen"], ["\u1ecd", "g\u1ee5"], ["l", "\u1ecb"], ["gon", "jwa"], ["ya", "ko"], ["po", "na"], ["zina", "zo"], ["u", "ku"], ["\u1293", "\u1275"], ["L", "e"], ["ur", "s"], ["ta", "'u"], ["in", "ni"], ["ka", "mu"], ["k", "hi"], ["be", "et"], ["le", "li"], ["mo", "tuka"], ["n", "ky\u025bn"], ["fo", "tsy"], ["ma", "int"], ["an", "u"], ["it", "y"], ["'", "an"], ["\u1265", "\u1235"], ["fu", "e"], ["na", "ba"], ["H", "i"], ["\u1215", "\u1265"], ["kira", "ga"], ["en", "ju"], ["ni", "m"], ["da", "ko"], ["q", "o"], ["wen", "do"], ["e", "to"], ["eb", "ye"], ["gwa", "gwa"], ["n", "-"], ["misi", "le"], ["chu", "un"], ["pa", "re"], ["wi", "ye"], ["gu", "la"], ["\u12a5\u12e9", "\u1362"], ["O", "lu"], ["za", "."], ["\u121d", "\u130d"], ["\u025b", "kpl\u0254"], ["ro", ","], ["ani", ","], ["oku", "sobola"], ["sa", "mu"], ["sin", "i"], ["m", "wana"], ["t", "ya"], ["e", "de"], ["ke", "ti"], ["hi", "m"], ["n", "du"], ["gi", ","], ["pan", "go"], ["o", "zi"], ["un", "da"], ["tu", "ru"], ["G", "re"], ["mi", "ka"], ["on", "u"], ["\u00e8", "y\u00e0n"], ["19", "8"], ["j\u1ecd", "ba"], ["g", "\u00f9n"], ["a", "gb\u00e1"], ["r", "\u00ec"], ["4", "0"], ["e", "we"], ["I", "s"], ["9", "."], ["A", "t"], ["sau", "ran"], ["far", "ko"], ["ka", "yan"], ["ru", "ru"], ["\u1ecb", "r\u1ecb"], ["re", "kani"], ["z", "ini"], ["a", "lobaki"], ["ko", "zanga"], ["bitu", "mba"], ["z", "\u2019"], ["\u07d8\u07ca\u07f2\u07ec\u07e0\u07ca", "\u07d5\u07cd\u07f0"], ["\u07e4\u07ca", "\u07df\u07cc\u07ec"], ["\u07de\u07cf", "\u07f2"], ["\u07d5", "\u07ca\u07f2\u07ec"], ["\u07de\u07ca", "\u07df\u07cc"], ["\u07d5", "\u07cf\u07eb"], ["\u07d5", "\u07cc\u07f2"], ["\u07dd\u07cc", "\u07df\u07ca"], ["\u07d3", "\u07cd\u07f2"], ["\u07dc", "\u07ca\u07f2"], ["\u07d8", "\u07cf"], ["\u07d4", "\u07ca"], ["t", "hi"], ["se", "e"], ["b", "y"], ["l\u00e1", "\u00ec"], ["\u00f3", "\u00f2"], ["w\u1ecdn", "."], ["gan", "in"], ["ga", "ka"], ["\u0199", "ara"], ["ekwen", "t\u1ecb"], ["bo", "ra"], ["asi", "li"], ["\u12ed", "\u1205"], ["\u121d", "\u122d"], ["\u122a", "\u12eb"], ["c", "am"], ["e", "ku"], ["kuli", "ku"], ["yin", "o"], ["ran", "te\u025b"], ["kpa", "re"], ["ga", "ma"], ["kon", "nwa"], ["p", "ono"], ["kwi", "ragu"], ["om", "we"], ["en", "gi"], ["le", "hi"], ["fi", "ta"], ["l", "."], ["\u1325", "\u1241\u122d"], ["es", "saa"], ["n", "yina"], ["N", "in"], ["sha", "ija"], ["va", "ri"], ["gi", "ya"], ["a", "do"], ["bi", "r"], ["\u12a0", "\u1265"], ["gi", "la"], ["yi", "li"], ["dza", "ka"], ["nh", "'"], ["su", "wa"], ["ine", "emmo"], ["tu", "ra"], ["at", "ani"], ["dhi", "di"], ["pfe", "ka"], ["vovo", "vo"], ["to", "oni"], ["go", "ye"], ["kya", "la"], ["e", "y'"], ["sali", "sa"], ["k", "s"], ["koze", "sebwa"], ["bi", "na"], ["pe", "le"], ["ko", "bo"], ["le", "ma"], ["ni", "."], ["sa", "tu"], ["hi", "it"], ["en", "yi"], ["ro", "."], ["le", "la"], ["yen", "ye"], ["za", "ti"], ["a", "gwa"], ["di", "na"], ["u", "lo"], ["bongi", "sa"], ["wana", ","], ["mi", "zi"], ["ki", "r"], ["ka", "mp"], ["ha", "zi"], ["po", "lo"], ["ran", "ko"], ["lan", "di"], ["t", "\u1eb9\u0301"], ["i", "p\u00f2"], ["\u00e0", "gb\u00e1"], ["k\u1ecd", "j\u00e1"], ["r", "\u00f9"], ["agb\u00e8", "gb\u00e8"], ["\u1ecd\u0300p\u1ecd\u0300", "l\u1ecdp\u1ecd\u0300"], ["W", "\u1ecd\u0301n"], ["d", "\u00ec\u00ed"], ["Hai", "ti"], ["M", "ar"], ["gba", "ra"], ["T", "ai"], ["Af", "ri"], ["80", "2."], ["802.", "11"], ["I", "tali"], ["wasan", "nin"], ["\u0257", "au"], ["Y", "an"], ["yan", "zu"], ["kun", "giyar"], ["Dun", "iya"], ["ja", "ri"], ["en", "were"], ["enwe", "gh\u1ecb"], ["na-", "aga"], ["h\u1ee5", "r\u1ee5"], ["o", "kwa"], ["ina", "yo"], ["kusa", "firi"], ["che", "zo"], ["mata", "ifa"], ["mwe", "zi"], ["ter", "net"], ["k", "y\u2019"], ["sin", "ze"], ["\u07db", "\u07ce\u07f2"], ["\u07dc\u07cb", "\u07d9\u07cb\u07f2"], ["\u07de", "\u07d8\u07ce\u07ec"], ["\u07de\u07cf", "\u07db\u07d3\u07cd\u07eb"], ["\u07db\u07cc\u07e6\u07ca", "\u07e1\u07ca\u07f2"], ["\u07e2\u07ca", "\u07f0"], ["\u07dd\u07cc\u07df\u07ca", "\u07e3\u07ca\u07f2"], ["\u07ca\u07ec", "\u07df\u07cb\u07ec"], ["\u07d5\u07cc", "\u07f0"], ["\u07db\u07ce", "\u07ee"], ["\u07df\u07d0\u07f2", "\u07e0\u07cc\u07f2"], ["f", "fe"], ["men", "t"], ["ati", "on"], ["r\u00ed", "n"], ["\u0199asa", "r"], ["a", "su"], ["wu", "rin"], ["kab", "la"], ["zi", "ma"], ["\u12eb", "\u1295"], ["\u12ed", "\u1273"], ["\u12eb", "\u1208\u12cd"], ["\u1206", "\u1295"], ["\u1240", "\u121d"], ["bi", "\u025b"], ["ba", "salaka"], ["M", "me"], ["tun", "tu"], ["ho", "."], ["han", "y"], ["ma", "ha"], ["o", "cung"], ["\u12ad", "\u120d"], ["\u12a9", "\u121d"], ["\u130d", "\u122b"], ["tsa", "ra"], ["man", "ga"], ["irra", "tti"], ["ge", "de"], ["ba", "m"], ["i", "'"], ["nam", "oni"], ["n'", "aka"], ["bu", "qu"], ["\u0253", "a"], ["z", "vaka"], ["e", "digbo"], ["ro", "sa"], ["e", "ba"], ["\u1235", "\u1270"], ["wali", "yo"], ["ta", "ko"], ["pe", "mbe"], ["a", "mi"], ["ol", "wa"], ["\u12d3\u12ed", "\u1290\u1275"], ["\u0253e", "\u0257o"], ["\u12f0", "\u1228"], ["u", "du"], ["ba", "bba"], ["kufa", "mba"], ["Mo", "to"], ["u", "yi"], ["la", "si"], ["j", "ini"], ["q", "assi"], ["n", "enga"], ["O", "bu"], ["ebi", "ri"], ["gi", "d"], ["gid", "don"], ["ze", "te"], ["ba", "ga"], ["ko", "ma"], ["ka", "wo"], ["j", "je"], ["e", "ka"], ["to", "lo"], ["i", "je"], ["mi", "ra"], ["i", "ka"], ["ke", "."], ["olu", "van"], ["gu", "mu"], ["ko", "be"], ["ku", "te"], ["in", "tan"], ["mi", "kolo"], ["Y", "e"], ["ya", "ri"], ["ga", "me"], ["di", "."], ["lwa", "dde"], ["moko", "."], ["ga", "ji"], ["P", "ar"], ["ri", "ch"], ["\u00ecd\u00ed", "je"], ["B", "al"], ["\u00ecl", "\u00e0n\u00e0"], ["Af", "gh"], ["Afgh", "ani"], ["er", "man"], ["p\u00fa", "p\u1ecd\u0300"], ["pe", "lu"], ["t\u00f3", "bi"], ["\u1eb9", "ni"], ["R", "os"], ["\u1eb9gb", "\u1eb9\u0301"], ["a\u0300", "w\u1ecdn"], ["L", "una"], ["8", "."], ["9", "5"], ["R", "om"], ["fi", "ye"], ["akwa", "i"], ["tafi", "ye"], ["zi", "r"], ["ha", "da"], ["rana", "r"], ["pu", "ku"], ["\u1ee5gb\u1ecd", "elu"], ["u", "kwu"], ["n'", "ebe"], ["a", "t\u1ee5"], ["ch", "\u1ecdr\u1ecd"], ["\u1ecb", "ga"], ["z", "\u1ee5"], ["\"", ","], ["tafi", "ti"], ["map", "oni"], ["ko", "kanga"], ["mosusu", "."], ["mi", "bu"], ["e", "salaka"], ["oko", "ki"], ["onye", "reza"], ["\u07dc", "\u07ca\u07ec"], ["\u07df\u07d0", "\u07ef"], ["\u07d3\u07cd", "\u07e3\u07ca\u07ec"], ["\u07d9", "\u07cc\u07eb"], ["\u07cd", "\u07d9"], ["\u07d6\u07cc\u07f0", "\u07e6\u07ca\u07ec"], ["\u07de\u07ca", "\u07d9\u07cf"], ["\u07e6", "\u07cb\u07df\u07cb\u07f2"], ["\u07d8\u07ca\u07f2", "\u07d8\u07ca"], ["\u07d6", "\u07df\u07ce\u07ec"], ["\u07d5\u07cf", "\u07df\u07cf\u07f2"], ["\u07de\u07cd", "\u07ed"], ["\u07e5", "\u07ca\u07f2"], ["\u07dd\u07ca\u07ec\u07d8\u07cc\u07ec", "\u07e1\u07ca\u07ec"], ["i", "d"], ["she", "karu"], ["ta", "bba"], ["han", "nu"], ["ku", "pata"], ["ch", "an"], ["kutu", "mia"], ["\u1264", "\u1275"], ["\u134a", "\u1275"], ["te", "s"], ["je", "dha"], ["ak", "yi"], ["s\u0254", "g"], ["i", "hu"], ["bala", "bala"], ["su", "o"], ["\u1260", "\u122d"], ["pe", "\u025b"], ["\u12a5\u1295", "\u1275"], ["\u12a8", "\u1263"], ["te", "ra"], ["\u1262", "\u132b"], ["v", "ana"], ["ja", "m"], ["obu", "lungi"], ["in", "hu"], ["i", "saa"], ["z", "\u025b"], ["ko", "fi"], ["mba", "dde"], ["da", "ma"], ["du", "."], ["te", "\u0192e"], ["v", "ol"], ["bo", "r"], ["fe", "re"], ["du", ","], ["k", ","], ["e", "es."], ["ji", "."], ["wag", "gulu"], ["e", "mabe"], ["z", "ino"], ["sin", "de"], ["tti", "i"], ["sa", "bin"], ["wa", "to"], ["Ny", "\u0254nu"], ["\u014a", "u"], ["\u12a3\u1265", "\u12da"], ["enge", "ri"], ["\u12a3", "\u120e"], ["\u12a2\u1275\u12ee", "\u1335"], ["zo", "."], ["ku", ","], ["ez", "'"], ["ki", "c"], ["k", "yi"], ["ko", "r"], ["li", "ri"], ["ton", "ga"], ["ko", "mi"], ["mo", "lai"], ["\u0263", "i"], ["\u12a5", "\u1272"], ["n", "k"], ["e", "\u0256ewo"], ["rin", "e"], ["ma", "to"], ["er", "ya"], ["ti", "vi"], ["pa", "t"], ["asa", "y"], ["d", "ra"], ["si", "na"], ["wa", "sa"], ["D", "e"], ["e", "wa"], ["ek", "yo"], ["o", "le"], ["bi", "ina"], ["n", "ini"], ["B", "ra"], ["kiri", "za"], ["e", "ze"], ["o", "wo"], ["N", "u"], ["mi", "sala"], ["s", "ti"], ["e", "fu"], ["or", "un"], ["mbu", "ka"], ["ki", "na"], ["lee", "li"], ["eke", "seni"], ["\u1e63\u00f9", "gb\u1ecd\u0301n"], ["\u00e0", "w\u00f2r\u00e1n"], ["ka", "l\u1eb9\u0300"], ["ol", "\u00f9"], ["la\u0301", "ti"], ["j", "\u00ecn"], ["s", "\u1eb9\u0301"], ["1", "7"], ["\u1e63", "i"], ["\u00ec", "b\u00e1"], ["i", "gba"], ["ay", "\u00e9"], ["So", "uth"], ["201", "0"], ["en", "us"], ["ha", "jan"], ["6", "."], ["At", "lan"], ["da", "ida"], ["shi", "r"], ["yan", "kin"], ["yana", "yin"], ["yana", "r"], ["abubu", "wa"], ["man", "ya"], ["Wan", "nan"], ["wa", "tan"], ["\u1ecb", "gba"], ["gha", "chi"], ["\u1ee5gb\u1ecd", "ala"], ["ga", "s\u1ecb"], ["sayen", "s\u1ecb"], ["e", "zu"], ["gbo", "chi"], ["m\u1ee5", "ta"], ["N", "\u2019"], ["na-", "agba"], ["ku", "ji"], ["ny", "ingine"], ["Kati", "ka"], ["onye", "sho"], ["u", "pande"], ["ko", "se"], ["Ma", "rekani"], ["zo", "mi"], ["gu", "mba"], ["si", "ansi"], ["maye", "le"], ["ko", "pesa"], ["ser", "enge"], ["lon", "da"], ["kuba", "dde"], ["\u07d3\u07d0", "\u07e3\u07cd\u07f2"], ["\u07df\u07ca", "\u07d3\u07ca\u07f2"], ["\u07ca\u07ec", "\u07df\u07ce\u07eb"], ["\u07db", "\u07cb\u07f2"], ["\u07db\u07cc", "\u07df\u07ca\u07eb"], ["\u07d8\u07ca", "\u07e1\u07cc\u07ec\u07d8\u07ca\u07ec"], ["\u07d0", "\u07d9"], ["\u07d6", "\u07ca\u07f2\u07eb"], ["\u07db\u07cf\u07ef\u07d9", "\u07cf"], ["\u07e2\u07e3\u07ca", "\u07d5\u07cd\u07ee"], ["\u07e3", "\u07d0\u07f0"], ["\u07d8\u07cf\u07ec", "\u07e3\u07cc\u07f2\u07ec"], ["\u07db\u07d0\u07ec\u07d8\u07d0\u07f2", "\u07eb"], ["\u07dc", "\u07cd\u07ec"], ["\u07de", "\u07d3\u07ca"], ["\u07db\u07cc", "\u07ee"], ["b", "le"], ["re", "c"], ["\u00e0k\u00f3", "k\u00f2"], ["b\u1eb9\u0300", "r\u1eb9\u0300"], ["gb", "\u1eb9\u0300"], ["d", "\u1ecd\u0301"], ["\u0253", "i"], ["man", "o"], ["da", "mar"], ["la", "mba"], ["hali", "tta"], ["g", "w\u1ecd"], ["\u1ecd", "m\u1ee5"], ["ma", "pe"], ["sha", "ji"], ["tu", "mia"], ["\u1293", "\u121b"], ["\u12cd", "\u1235"], ["lu", "s"], ["baa", "y'"], ["gu", "ddaa"], ["G", "a"], ["n", "he"], ["g", "he"], ["A", "bantu"], ["n", "eno"], ["ta", "ba"], ["fi", "na"], ["A", "wa"], ["ko", "a"], ["\u12dd\u1270", "\u1348\u120b"], ["\u1270", "\u1240\u121d"], ["\u1265", "\u1228"], ["z", "\u0254"], ["f", "ana"], ["nyina", "a"], ["a", "jwaire"], ["wo", ","], ["ke", "le"], ["van", "hu"], ["asa", "a"], ["\u1308", "\u12db"], ["\u0254", "w\u025b"], ["so", "me"], ["omu", "ti"], ["ji", "ru"], ["l", "lon"], ["o", "bi"], ["ha", "y"], ["de", "de"], ["lo", "on"], ["ka", "ya"], ["ton", "i"], ["\u014au", "tsu"], ["u", "mi"], ["n", "zoto"], ["\u025b", "s\u025b"], ["n", "wo"], ["\u025bf", "\u028b"], ["hari", "yo"], ["gon", "go"], ["a", "ku"], ["kyen", "vu"], ["omu", "ntu"], ["K", "andi"], ["ay", "\u028b"], ["\u0257", "\u0257o"], ["po", "o"], ["ra", "i"], ["ye", "l"], ["bon", "g"], ["musa", "mman"], ["hu", "ku"], ["pe", "la"], ["sa", "wa"], ["m", "y"], ["saa", "da"], ["lo", "be"], ["go", "ro"], ["misa", "to"], ["K", "ino"], ["ku", "shi"], ["a", "ja"], ["len", "zi"], ["el", "le"], ["g", "\u00e9"], ["oku", "kola"], ["kun", "di"], ["u", "ru"], ["no", "r"], ["bab", "engaka"], ["in", "\u00fa"], ["Afghani", "stan"], ["m\u00ed", "r\u00e0n"], ["gb", "\u1eb9\u0301"], ["o", "mo"], ["k\u00f2", "k\u00f2"], ["r", "\u00fan"], ["b", "\u00f3"], ["M", "et"], ["Met", "ro"], ["Wa", "shing"], ["Washing", "ton"], ["le", "ra"], ["y", "\u1eb9\u0300"], ["3", "5"], ["w\u1ecd", "\u0300n"], ["Ber", "lin"], ["Po", "land"], ["Ame", "rika"], ["U", "ta"], ["S", "ch"], ["ki", "o"], ["hai", "far"], ["gu", "dana"], ["ra", "shin"], ["wa\u0257an", "da"], ["ho", "ton"], ["ru", "wan"], ["yo", "yi"], ["za", "mani"], ["ji", "ji"], ["ra", "hi"], ["r\u1ecb", "ka"], ["ag", "banyegh\u1ecb"], ["ezi", "gbo"], ["a", "d\u1ecb"], ["ki", "asi"], ["ghu", "li"], ["usa", "firi"], ["wan", "gu"], ["tali", "i"], ["D", "uni"], ["baa", "dhi"], ["za", "ji"], ["bo", "yangeli"], ["baso", "da"], ["kon", "zi"], ["zwa", "ki"], ["mo", "i"], ["ko", "lon"], ["eb", "yen"], ["b", "y\u2019"], ["kule", "mbe"], ["\u07e1\u07ca", "\u07df\u07d0\u07f2"], ["\u07d6\u07ca\u07ef", "\u07d3\u07ca"], ["\u07e1", "\u07d9\u07ca\u07ec"], ["\u07de\u07d0", "\u07dd"], ["\u07dd", "\u07d8\u07cf\u07ec"], ["\u07d8\u07ce", "\u07e2\u07ca\u07eb"], ["\u07d5\u07cc", "\u07d9\u07cc\u07f2"], ["\u07d5\u07cc\u07d9\u07cc\u07f2", "\u07e0\u07cc\u07f2"], ["\u07d3", "\u07d8\u07cd"], ["\u07dd", "\u07ce\u07ec"], ["\u07d5\u07ca\u07ef\u07e1\u07ca\u07d8\u07d0", "\u07d5\u07ca\u07ef"], ["\u07e0", "\u07f4\u07ca\u07ec"], ["\u07df\u07d0", "\u07f2\u07ec"], ["\u07dc", "\u07d8\u07cd"], ["\u07de\u07cd", "\u07df\u07cc"], ["\u07d5\u07f4", "\u07db\u07cb\u07eb"], ["\u07de\u07ce", "\u07d8\u07ca\u07eb"], ["\u07d3", "\u07cc\u07f2"], ["\u07db\u07ca\u07f2\u07e1\u07ca", "-"], ["\u07de", "\u07cb\u07ec"], ["\u07d4", "\u07ce\u07ec"], ["\u07de", "\u07d1"], ["\u07e1", "\u07cc\u07f2"], ["\u07dc", "\u07cf\u07ec"], ["\u07d5", "\u07d0\u07eb"], ["\u07db\u07d8\u07cd", "\u07de\u07d9\u07ce"], ["\u07e6\u07d9\u07cc", "\u07de\u07ca"], ["\u07de\u07d0\u07f0", "\u07d8\u07ce\u07ee"], ["\u07d3\u07ca", "\u07ef"], ["\u07d5\u07cd", "\u07ef"], ["\u07de\u07d0\u07ec", "\u07e3\u07d0"], ["\u07db", "\u07cf\u07eb"], ["\u07d3", "\u07df\u07cb\u07ec"], ["C", "hi"], ["de", "r"], ["c", "ci"], ["p\u00e0", "t\u00e0"], ["\u00e8", "r\u00e8"], ["cu", "tar"], ["n", "che"], ["h", "\u1ecba"], ["\u1ecd", "ka"], ["du", "a"], ["m", "wan"], ["\u1295", "\u1235"], ["\u122b", "\u1275"], ["\u12d8", "\u122d"], ["s", "\u00e9"], ["on", ","], ["won", "g"], ["ke", "bwa"], ["a", "\u0263"], ["p", "l\u0254"], ["bi", "e"], ["se", "re"], ["T", "ran"], ["puori", "\u014b"], ["\u1263", "\u1208"], ["\u12a0\u1295", "\u12f5"], ["uffa", "ta"], ["ti", "ka"], ["ma", "gari"], ["ila", "y"], ["n", ","], ["ko", "to"], ["ce", ","], ["z", "ve"], ["ko", "si"], ["\u12ed", "\u122d"], ["al", "\u025b"], ["m", "maa"], ["ku", "mbali"], ["\u12ad", "\u12f3"], ["nyu", "mba"], ["wo", "\u0192e"], ["sa", "ga"], ["maa", "ti"], ["si", "ya"], ["garin", "ni"], ["tti", "ya"], ["ka", "fa"], ["'", "aa"], ["ada", "da"], ["\u025b", "fu"], ["tee", "buli"], ["eki", "ri"], ["mabo", "ko"], ["ku", "i"], ["te", "ka"], ["na", "mo"], ["sha", "a"], ["n", "\u028a"], ["ma", "kwa"], ["ku", "ne"], ["ma", "ge"], ["ani", "."], ["tta", "y"], ["e", "\u014bu"], ["wu", "ri"], ["ko", "da"], ["at", "te"], ["ku", "mpi"], ["te", "be"], ["ye", "."], ["yi", "miri"], ["omu", "piira"], ["\u12c8", "\u12ed"], ["K", "am"], ["che", "na"], ["wa", "y"], ["vi", "na"], ["j", "ju"], ["bu", "tu"], ["li", "za"], ["t", "enge"], ["lika", "mbo"], ["tan", "da"], ["g", "y"], ["b", "ende"], ["a", "fu"], ["ko", "li"], ["in", "."], ["ba", "be"], ["W", "akati"], ["o", "za"], ["C", "ar"], ["kwen", "da"], ["I", "ra"], ["H", "ii"], ["a", "ina"], ["i", "sha"], ["bi", "t"], ["S", "hi"], ["Ame", "ri"], ["ri", "\u0301"], ["A", "won"], ["m", "\u00f3"], ["k", "\u00fan"], ["a", "w\u1ecdn"], ["\u00e0", "r\u00ed"], ["\u00e0gb\u00e1", "y\u00e9"], ["E", "P"], ["k\u00f2k\u00f2", "r\u00f2"], ["\u1eb9gb", "\u1eb9\u0300"], ["\u00e0", "\u00ec"], ["Bu", "sh"], ["D", "is"], ["Dis", "ne"], ["A", "C"], ["Run", "ning"], ["ce", "."], ["le", "o"], ["sa", "mar"], ["ai", "kin"], ["A", "mur"], ["yawan", "cin"], ["wa", "ki"], ["su", "la"], ["mpa", "ghara"], ["an", "yanw\u1ee5"], ["en", "yo"], ["\u1ecd", "h\u1ee5r\u1ee5"], ["ana", "gh\u1ecb"], ["n\u2019", "oge"], ["n'i", "hi"], ["n\u2019", "ebi"], ["ali", "ye"], ["wen", "gine"], ["kupi", "tia"], ["si", "ku"], ["wana", "weza"], ["m", "singi"], ["wa", "o"], ["onye", "sha"], ["mpa", "si"], ["mo", "pepe"], ["etu", "luku"], ["woo", "za"], ["wan", "kubadde"], ["nge", "ri"], ["l", "w\u2019"], ["ng", "\u2019"], ["tongo", "le"], ["yi", "tibwa"], ["\u07e2\u07d0\u07f2\u07f0", "\u07e1\u07ca"], ["\u07dd\u07cf\u07ec", "\u07e3\u07ca\u07f2\u07ec"], ["\u07d5", "\u07cf\u07ec"], ["\u07e2\u07e3\u07ca\u07d5\u07ca", "\u07df\u07cc"], ["\u07d9", "\u07cc\u07f2\u07ec"], ["\u07e1\u07ca\u07ec", "\u07f8"], ["\u07d3", "\u07d9\u07ca"], ["\u07d8", "\u07cf\u07f2"], ["\u07de\u07ca\u07f2\u07ec", "\u07f8"], ["\u07de\u07ce", "\u07d8\u07cd\u07eb"], ["\u07d2", "\u07d8\u07d0"], ["\u07d9", "\u07ce"], ["\u07d5", "\u07e3\u07cd\u07ec"], ["\u07d5\u07e3\u07cd\u07ec", "\u07e3\u07cd\u07ec"], ["\u07d5", "\u07d0\u07ec"], ["\u07dc\u07cf\u07ec", "\u07d9\u07cf\u07f2\u07ec"], ["\u07db", "\u07ed"], ["\u07dd\u07cc\u07ec", "\u07df\u07ca\u07ec"], ["\u07de\u07ce\u07f2\u07ec", "\u07d5"], ["p\u00e0t\u00e0", "k\u00ec"], ["m", "\u1eb9"], ["so", "sai"], ["ji", "ki"], ["ta", "i"], ["n'", "af\u1ecd"], ["ki", "mu"], ["m", "vu"], ["\u1208", "\u1275"], ["\u1263", "\u1295"], ["v", "on"], ["t", ","], ["d", "wong"], ["a", "fa"], ["\u025b", "w\u0254"], ["a", "ge"], ["tti", "da"], ["o", "bedo"], ["laki", "sa"], ["a", "lo"], ["shu", "sh"], ["in", "go"], ["maa", "ra"], ["\u12dd\u1270\u1348\u120b", "\u1208"], ["Al", "\u028b"], ["ofu", "e"], ["dee", "ba"], ["ji", "i"], ["e", "wu"], ["rosi", "isa"], ["shan", "no"], ["y", "ye"], ["va", "kwa"], ["v", "\u0254"], ["lu", "tino"], ["k", "w'"], ["ad", "di"], ["fi", "la"], ["n'", "ebi"], ["x", "xi"], ["y", "yaa"], ["no", "lo"], ["ol", "wo"], ["ba", "bi"], ["\u0256", "\u0254"], ["ti", "que"], ["f", "en"], ["\u12ed\u1273", "\u12eb"], ["xa", "wi"], ["n'", "eki"], ["..", "."], ["so", "zi"], ["e", "rangi"], ["A", "li"], ["t", "ende"], ["bagga", "ara"], ["n", "\u025b"], ["M", "aka"], ["ba", "o"], ["en", "na"], ["ma", "sa"], ["ma", "zi"], ["de", ","], ["di", "e"], ["m", "ye"], ["ri", "ra"], ["\u1230", "\u1263"], ["q", "abe"], ["pa", "si"], ["esali", "saka"], ["ku", "zi"], ["h", "on"], ["vu", "ga"], ["ba", "ku"], ["hu", "ri"], ["en", "kola"], ["bu", "de"], ["ba", "ye"], ["A", "ka"], ["mi", "tuka"], ["bin", "ja"], ["di", "yo"], ["ro", "s"], ["vi", "d"], ["eki", "fo"], ["ku", "banga"], ["yango", ","], ["gi", "bwa"], ["u", "."], ["n", "do"], ["d", "ino"], ["ko", "bongisa"], ["bi", "tundu"], ["\u0199", "e"], ["be", "r"], ["ce", "lo"], ["F", "in"], ["kwa", "i"], ["tele", "f"], ["R", "u"], ["R", "us"], ["e", "\u0300"], ["k\u00e9", "r\u00e9"], ["j", "\u00ed"], ["\u00f2", "furu"], ["d", "\u1eb9"], ["p\u1ecd", "l\u1ecd"], ["9", ","], ["l\u1eb9\u0301", "y\u00ecn"], ["af", "\u1eb9\u0301"], ["Si", "mp"], ["Simp", "son"], ["Ar", "gen"], ["\u00e0", "k\u1ecd\u0301k\u1ecd\u0301"], ["w\u00e1", "y\u00e9"], ["\u201d", ","], ["W", "hi"], ["S", "tar"], ["O", "ne"], ["M", "R"], ["mai", "li"], ["bab", "ban"], ["u", "rar"], ["bay", "yana"], ["binci", "ke"], ["shi", "."], ["shekara", "r"], ["\u0257a", "ya"], ["bu", "\u0199"], ["shu", "gaban"], ["fa", "sa"], ["ja", "ma"], ["min", "is"], ["gha", "ri"], ["ag", "banwe"], ["zu", "ru"], ["f", "\u1ee5"], ["\u1ee5", "t\u1ee5"], ["ogo", "logo"], ["osi", "si"], ["nso", "gbu"], ["ju", "li"], ["chu", "kua"], ["shu", "ghuli"], ["amba", "zo"], ["ma", "eneo"], ["it", "wa"], ["n", "dogo"], ["se", "ri"], ["seri", "kali"], ["yo", "te"], ["ro", "pa"], ["wa", "me"], ["kan", "da"], ["M", "bala"], ["ama", "anyi"], ["zan", "yi"], ["\u07db\u07cc\u07f2\u07ec", "\u07dd\u07cf\u07f2\u07ec"], ["\u07e5", "\u07ca\u07eb"], ["\u07dd\u07d9", "\u07cb"], ["\u07d8\u07ce\u07f2\u07ec", "\u07d8\u07ce\u07ec"], ["\u07de\u07d0\u07f2\u07ec", "\u07db\u07cf"], ["\u07df\u07ca", "\u07e1"], ["\u07d6", "\u07cf"], ["\u07dd\u07d8\u07ca\u07ec", "\u07dd\u07cc\u07f2\u07ec"], ["\u07d6", "\u07cd\u07f2"], ["\u07d3", "\u07d9\u07cd\u07ec"], ["\u07dc\u07cb\u07df\u07cb\u07f2", "\u07dc\u07cb\u07df\u07cb\u07f2"], ["\u07d3\u07cf\u07ec", "\u07d9\u07cc\u07ec"], ["\u07d8\u07cd\u07ec", "\u07e1\u07cd"], ["\u07d8\u07cd\u07ec\u07e1\u07cd", "\u07f2\u07ec"], ["\u07de\u07f5", "\u07cf\u07ec"], ["\u07d3\u07df\u07d0", "\u07df\u07d0"], ["\u07db", "\u07d0\u07f2"], ["\u07de", "\u07d8\u07d0\u07ec"], ["\u07e1\u07ca", "\u07dd\u07cd"], ["\u07de\u07ce", "\u07d8\u07ca"], ["\u07de\u07d9", "\u07ce\u07ec"], ["\u07d2", "\u07d6"], ["\u07d2\u07d6", "\u07d8\u07cd"], ["\u07e1", "\u07cd\u07ec"], ["T", "he"], ["P", "ro"], ["\u1ecd", "w\u1ecd\u0301"], ["kan", "."], ["pa", "ra"], ["ci", "."], ["man", "in"], ["gi", "na"], ["\u1ee4", "m\u1ee5"], ["\u1ee5", "gw\u1ecd"], ["n", "\u1ee5"], ["muhi", "mu"], ["una", "o"], ["\u1232", "\u1206\u1295"], ["V", "e"], ["pa", "r"], ["u", "le"], ["\u0257", "on"], ["wa", "ya"], ["la", "r"], ["er", "ana"], ["za", "va"], ["f", "ra"], ["ak", "yi."], ["kwiragu", "ra"], ["la", "p"], ["an", "."], ["\u12f0\u1235", "\u1273"], ["\u12f5", "\u1295"], ["ata", "a"], ["i", "tti"], ["bi", "hi"], ["da", "li"], ["do", "zi"], ["\u12a5\u1295", "\u1328"], ["q", "i"], ["ata", "mi"], ["ri", "ma"], ["ban", "du"], ["k", "he"], ["kira", "gala"], ["ya", "m"], ["ku", "bi"], ["n", "yaa"], ["mi", "le"], ["\u1215\u1265", "\u122a"], ["lo", "wo"], ["d", "zo"], ["kwa", "ri"], ["N", "zvimbo"], ["S", "inga"], ["no", ","], ["lu", "li"], ["m", "mu"], ["b", "w'"], ["mi", "r"], ["F", "A"], ["ama", "dede"], ["\u0256e", "vi"], ["wo", "di"], ["ko", "ba"], ["bu", "ku"], ["ku", "\u0263u"], ["ha", "mwe"], ["te", "ma"], ["\u1208", "\u127d"], ["vovovo", "wo"], ["ma", "yi"], ["\u121d\u1235", "\u120a"], ["maa", "yi"], ["\u12a5\u1295", "\u1273\u12ed"], ["za\u0263", "'"], ["ch", "\u025b"], ["ga", "mbo"], ["ik", "po"], ["e", "dini"], ["a", "di"], ["\u1230", "\u12ce\u127d"], ["\u12dd", "\u1260"], ["pe", "mb"], ["pemb", "eni"], ["a", "yo"], ["lee", "ta"], ["\u12a2\u1275\u12ee\u1335", "\u12eb"], ["P", "ete"], ["wa", "dda"], ["o", "wu"], ["omu", "kono"], ["L", "ee"], ["mun", "tu"], ["un", "u"], ["boo", "tta"], ["sa", "jja"], ["pi", "cha"], ["ti", "k"], ["ge", "re"], ["la", "ck"], ["mi", ","], ["quu", "llu"], ["ya", "mba"], ["mibale", ","], ["moko", ","], ["i", "e"], ["g", "re"], ["T", "om"], ["ha", ","], ["lu", "lu"], ["o", "li"], ["de", "re"], ["bi", "za"], ["ra", "fa"], ["po", "le"], ["kan", "kara"], ["sa", "man"], ["be", "rt"], ["obu", "ta"], ["E", "ta"], ["un", "ga"], ["g", "wi"], ["ji", "ri"], ["i", "pa"], ["am", "bu"], ["d", "\u1ecd"], ["\u00ec", "j\u00e0"], ["C", "EP"], ["\u00ecr\u00ecn", "n\u00e0"], ["A", "lon"], ["9", "4"], ["l\u00f3", "g\u00fan"], ["f", "\u00f2"], ["B", "\u00ed"], ["Ros", "s"], ["m", "\u00f9"], ["20", "20"], ["A", "u"], ["a", "\u1e63"], ["so", "ke"], ["F", "al"], ["F", "eli"], ["te", "d"], ["-", "19"], ["o", "fe"], ["Paki", "stan"], ["war", "d"], ["lu", "ja"], ["f", "t"], ["sa", "sa"], ["o\u0300", "tu"], ["7", "."], ["da", "bbo"], ["sa", "ke"], ["Ya", "wan"], ["gi", "zo"], ["ko", "kin"], ["da", "ji"], ["san", "in"], ["jali", "sar"], ["ne", "i"], ["\u1ecdn", "wa"], ["g", "\u1ecd\u1ecd"], ["ik", "pe"], ["nwe", "ta"], ["n", "wan"], ["mme", "mme"], ["et", "\u1ecb"], ["em", "on"], ["maa", "rufu"], ["wan", "yama"], ["un", "ge"], ["W", "ana"], ["we", "ze"], ["hu", "ko"], ["ka", "dhaa"], ["ina", "weza"], ["amba", "po"], ["mobi", "mba"], ["e", "bande"], ["el", "ongo"], ["luki", "luki"], ["bapa", "ya"], ["K", "asi,"], ["mat", "ch"], ["resi", "den"], ["residen", "t"], ["oluvan", "yuma"], ["wu", "li"], ["ku", "biri"], ["\u07e0\u07ca\u07eb", "\u07f8"], ["\u07e3\u07cc", "\u07e1\u07ca"], ["\u07d3\u07ca\u07df\u07cc", "\u07e6\u07ca"], ["\u07d3\u07f4", "\u07db\u07cb\u07eb"], ["\u07e2\u07cc\u07e3\u07cc\u07f2", "\u07e3\u07cd\u07f2\u07eb"], ["\u07d8\u07ce\u07f2\u07ec\u07d8\u07ce\u07ec", "\u07e1\u07ca\u07ec"], ["\u07e5", "\u07df\u07ca"], ["\u07d9", "\u07cb\u07ec"], ["\u07dd\u07d8\u07ca\u07ec\u07dd\u07cc\u07f2\u07ec", "\u07e0\u07ca\u07eb"], ["\u07d7\u07cf", "\u07ef\u07e6\u07ca"], ["\u07db\u07ca\u07f2", "\u07ed"], ["\u07e3", "\u07f5\u07ca\u07ec"], ["\u07db", "\u07d0\u07f0"], ["\u07e6\u07df\u07cd\u07ec", "\u07e1\u07ca\u07f2\u07ec"], ["\u07de", "\u07cd\u07f2"], ["\u07dd\u07ca\u07ec", "\u07db\u07cf"], ["\u07e3\u07cd", "\u07f0"], ["\u07dd", "\u07df"], ["\u07e3\u07ca", "\u07ef"], ["\u07de\u07cd", "\u07e3\u07cd\u07f2\u07eb"], ["\u07df", "\u07ce\u07f2\u07ec"], ["\u07e1", "\u07cb"], ["\u07d3\u07df\u07cb\u07ec", "\u07d3\u07df\u07cb"], ["pa", "ti"], ["an", "d"], ["c", "om"], ["e", "d"], ["b", "\u00f9"], ["\u00e0", "r\u00f9n"], ["s", "\u00f3"], ["bi", "yar"], ["go", "ma"], ["fan", "in"], ["kwe", "s\u1ecbr\u1ecb"], ["\u1ecd", "ma"], ["ki", "sha"], ["wan", "go"], ["ku", "ka"], ["ku", "on"], ["\u12ad", "\u134d"], ["ma", "di"], ["ma", "dwong"], ["ani", "m"], ["k\u0254k\u0254", "\u0254"], ["ala", "ti"], ["li", "banda"], ["i", "zan"], ["\u120b", "\u1278\u12cd"], ["yen", "da"], ["na", "la"], ["ba", "yo"], ["mi", "so"], ["\u1263", "\u122d"], ["i", "wo"], ["bab", "engi"], ["lehi", "be"], ["po", "to"], ["\u0253", "an"], ["me", "na"], ["eri", "yo"], ["ti", "hi"], ["bi\u025b", "ni"], ["\u1218", "\u1293"], ["\u12e8", "\u1218"], ["\u122d", "\u1263"], ["an", "no"], ["b", "bulu"], ["gu", "du"], ["W", "ali"], ["an", "za"], ["ko", "ola"], ["ene", ","], ["\u1235", "\u122d"], ["\u1348", "\u1325"], ["utti", "da"], ["de'", "ees."], ["P", "ane"], ["ma", "hi"], ["ba", "l"], ["ten", "ne"], ["wan", "\u0269"], ["\u025b", "d\u0269n\u0269"], ["mu", "ti"], ["P", "A"], ["n", "nyo"], ["sabin", "li"], ["yin", "i"], ["et", "\u0254"], ["tsi", "tre"], ["yi", "b\u0254"], ["af", "\u0254"], ["wa", "an"], ["la", "y"], ["sh", "shanno"], ["yine", "emmo"], ["N", "oba"], ["f", "on"], ["wo", "t"], ["T", "u"], ["\u025bf", "\u025b"], ["mai", "sho"], ["\u1205", "\u1295"], ["a", "go"], ["s", "saa"], ["go", "\u0257\u0257o"], ["ye", "ya"], ["F", "i"], ["m", "bwa"], ["ba", "tu"], ["yi", "sa"], ["ir", "raa"], ["longo", "la"], ["pi\u025b", "la"], ["ki", "ke"], ["c", "."], ["tin", "g"], ["\u1260", "\u1230"], ["sa", "lo"], ["n", "oku"], ["fa", "si"], ["n", "yanja"], ["mbe", "le"], ["ma", "u"], ["kota", "mbola"], ["me", ","], ["po", "r"], ["hari", "mu"], ["kani", "sa"], ["ri", "za"], ["es", ","], ["t", "tanno"], ["moko", "nzi"], ["u", "mma"], ["tan", "di"], ["ho", "tel"], ["gi", "dan"], ["ra", "ha"], ["me", "s"], ["tele", "vi"], ["l", "s"], ["zi", "ra"], ["1", ")"], ["o", "ju"], ["el", "\u00e9"], ["aka", "ra"], ["S", "un"], ["na", "mba"], ["ma", "\u0301"], ["t", "\u00e8"], ["w\u00f3", "\u0323n"], ["wi", "pe"], ["\u00ec", "p\u00edn"], ["y\u00e0", "t\u1ecd\u0300"], ["\u00e0r\u00ed", "w\u00e1"], ["G", "erman"], ["ar", "\u00ecn"], ["na", "\u0300"], ["r", "\u00fa"], ["t", "\u1eb9\u0300"], ["n", "s\u00ec"], ["n\u00e1\u00e0", "."], ["Metro", "P"], ["MetroP", "lus"], ["agb\u00e1", "ra"], ["Fran", "ci"], ["ar", "in"], ["\u00ecw\u00e1", "d\u00ec\u00ed"], ["p", "\u00ed"], ["G", "i"], ["\u00e0", "y\u00ed"], ["GP", "S"], ["Indi", "a"], ["Ho", "ward"], ["pen", "ha"], ["4", "6"], ["I", "ran"], ["O", "C"], ["9", "0"], ["b", "hajan"], ["Ari", "zo"], ["le", "r"], ["1", "5"], ["-", "3"], ["D", "el"], ["wa", "je"], ["wura", "re"], ["m", "ta"], ["han", "yoyin"], ["sha", "kata"], ["kasa", "shen"], ["han", "kali"], ["da", "mu"], ["ba", "da"], ["na", "\u2019"], ["gwa", "mna"], ["6", "0"], ["\u1ee4", "l\u1ecd"], ["n'", "etiti"], ["chi", "te"], ["\u1ecdz\u1ecd", "."], ["\u1ecc", "t\u1ee5t\u1ee5"], ["site", "re"], ["M", "gbe"], ["m", "fe"], ["n\u2019", "elu"], ["O", "tu"], ["u", "gbu"], ["g\u1ee5", "nyere"], ["b\u1ecd", "\u1ecd"], ["m", "ji"], ["m", "tu"], ["dhi", "biti"], ["ti", "mu"], ["kuto", "a"], ["ucha", "guzi"], ["the", "lu"], ["hivyo", ","], ["ali", "kuwa"], ["tak", "ri"], ["fi", "ki"], ["ele", "kea"], ["uli", "mwen"], ["vi", "tu"], ["ban", "yama"], ["ma", "kanisi"], ["mo", "sika"], ["nor", "di"], ["ma", "loba"], ["bate", "la"], ["na", "ino"], ["es", "engaka"], ["mi", "bembo"], ["in", "ternet"], ["ko", "mpani"], ["telef", "one"], ["masu", "wa"], ["ton", "de"], ["k", "w\u2019"], ["kyu", "ka"], ["\u07d6\u07ca\u07ef\u07d3", "\u07e1\u07ca"], ["\u07df\u07ca", "\u07d2"], ["\u07de\u07ce\u07ec\u07d9\u07ce\u07f2\u07ec", "\u07d8\u07ce"], ["\u07d6\u07cd\u07ec\u07d8\u07cd", "\u07d6\u07cd\u07ec\u07d8\u07cd"], ["\u07e1", "\u07e6\u07ca"], ["\u07dd\u07d8\u07cf\u07ec", "\u07d3\u07ca\u07ec"], ["\u07d8\u07d0", "\u07ef"], ["\u07d6\u07ce", "\u07ee"], ["\u07de\u07ca\u07f2", "\u07de\u07cb"], ["\u07db", "\u07cd\u07ec"], ["\u07d3\u07cc", "\u07df\u07ca"], ["\u07e5", "\u07df\u07cc\u07ec"], ["\u07de\u07cf\u07df\u07ca", "\u07d8\u07cd"], ["\u07de", "\u07d8\u07d0\u07eb."], ["\u07e5", "\u07ce\u07ec"], ["\u07d8", "\u07cb\u07eb"], ["\u07e1\u07ca", "\u07dc"], ["\u07e5\u07ca", "\u07df\u07cc"], ["\u07dc\u07ed", "\u07ca"], ["\u07dd", "\u07cc\u07f2"], ["\u07e6\u07f4\u07ca\u07ec", "\u07df\u07ce\u07ec"], ["\u07de\u07ce", "\u07e1\u07ca"], ["\u07d5", "\u07ca\u07f2\u07eb"], ["d", "s"], ["c", "le"], ["w", "\u00fa"], ["k", "\u00e1\u00e0"], ["ir", "\u00fa"], ["ko", "wane"], ["A", "m"], ["mk", "p\u1ee5r\u1ee5"], ["b\u1ee5", "la"], ["n'", "oge"], ["o", "here"], ["zo", "te"], ["pan", "da"], ["\u12c8", "\u12f0"], ["\u12cd\u1235", "\u1325"], ["f", "f"], ["do", "\u0254"], ["be", "be"], ["ne", "sa"], ["m", "fi"], ["ali", "na"], ["eri", "ku"], ["n", "."], ["ke", "ly"], ["re", "he"], ["to", "p"], ["en", "y"], ["\u12a8\u1263", "\u1262"], ["\u120d", "\u1245"], ["ra", "ka"], ["mbe", "ri"], ["moo", "ta"], ["\u1300", "\u122d\u1263"], ["\u1235", "\u122b"], ["pin", "di"], ["N", "nipa"], ["bi", "."], ["mere", "ire"], ["shi", "li"], ["muli", "mo"], ["tsi", "li"], ["we", "ra"], ["d\u0254", "w\u0254"], ["gi", "ddo"], ["ga", "dzi"], ["ts", "vu"], ["no", "ba"], ["\u025b", "ma"], ["ku", "so"], ["\u12dd", "\u1265"], ["el", "li"], ["\u134d", "\u1245\u122d"], ["\u025b", "m\u025b"], ["se", "."], ["mashi", "z"], ["a", "gan"], ["lu", "gu"], ["v", "in"], ["s", "\u0269"], ["t", "tan"], ["emabe", "ga"], ["ebira", "la"], ["\u1232", "\u12eb"], ["gu", "gu"], ["san", "ni"], ["B", "ar"], ["lu", "u"], ["ala", "a"], ["mbi", "bwa"], ["bulu", "u"], ["\u1218", "\u122c"], ["w", "ene"], ["pe\u025b", "le"], ["tee", "re"], ["un", "gani"], ["wo", "do"], ["za", "ya"], ["B", "ana"], ["de", "le"], ["\u0256", "a"], ["pa\u0263", "aba"], ["ze", "\u025b"], ["don", "g"], ["kon", "ne"], ["la", "wo"], ["to", "ro"], ["h\u0254", ","], ["be", "le"], ["em", "motoka"], ["q", "oo"], ["la", "yi"], ["\u120e", "\u127d"], ["ka", "to"], ["yu", "fu"], ["i", "yi"], ["dh", "ino"], ["b", "be"], ["guu", "do"], ["ma", "s"], ["ni", "ra"], ["yin", "gira"], ["ni", ","], ["tu", ","], ["ga", "zi"], ["\u12a3\u1208", "\u12c9"], ["i", "ko"], ["ba", "biri"], ["a", "ine"], ["ca", "to"], ["b", "eni"], ["ki", "buga"], ["aba", "lala"], ["sh\u025b", "ba"], ["hiit", "too"], ["\u0189", "evi"], ["ku", "l"], ["wo", "te"], ["E", "mi"], ["bali", "na"], ["ta", "ja"], ["tan", "go"], ["k", "yan"], ["ku", "gu"], ["zan", "nyo"], ["ru", "gb"], ["e", "rin"], ["O", "ke"], ["lo", "osi"], ["ele", "ki"], ["ha", "si"], ["wa", "mu"], ["ku", "ju"], ["al", "\u0254"], ["ya", "da"], ["S", "in"], ["a", "wali"], ["mu", "ra"], ["fi", "ti"], ["mabe", "le"], ["n", "ta"], ["kamp", "uni"], ["be", "la"], ["H", "an"], ["kati", "kati"], ["ba", "bo"], ["m", "g"], ["ba", "sala"], ["ru", "si"], ["\u1ecd\u0300", "r\u1ecd\u0300"], ["\u1eb9", "ranko"], ["k\u00f2", "\u00f3"], ["t", "\u00f9"], ["F", "aran"], ["\u00ec", "gb\u00ec"], ["fi", "l"], ["ku", "su"], ["7", "0"], ["\u1ecd", "p\u1ecdl\u1ecd"], ["t", "ha"], ["S", "p"], ["Franci", "sco"], ["lu", "\u0301"], ["L", "\u00e1"], ["Z", "ea"], ["Zea", "land"], ["i", "h"], ["pro", "ton"], ["\u00ec", "j\u1ecdba"], ["U", "N"], ["Tur", "ki"], ["\u00ec", "gb\u00e9"], ["Cana", "da"], ["tel", "ly"], ["\u00ec", "w\u00f2"], ["A", "la"], ["W", "i"], ["Ama", "zon"], ["US", "A"], ["d", "\u00f9n"], ["Tai", "wan"], ["Van", "cou"], ["Vancou", "ver"], ["Uta", "h"], ["O", "V"], ["gne", ","], ["O", "r"], ["Ma", "ssa"], ["F", "lori"], ["le", "lo"], ["G", "u"], ["\u1ecd", "gba"], ["V", "enus"], ["do", "ka"], ["g", "la"], ["al", "\u2019"], ["ki", "ran"], ["Y", "ana"], ["\u0199", "an"], ["dan", "nan"], ["te", "ku"], ["ci", ","], ["bu\u0199", "atar"], ["gir", "ma"], ["sha", "r"], ["Ba", "yan"], ["kimi", "yya"], ["i", "kuku"], ["me", "gide"], ["\u1ecb", "h\u1ee5"], ["ugbo", "ro"], ["ok", "po"], ["m", "m\u1ee5ta"], ["n'", "\u1ee5wa"], ["E", "gwu"], ["na-ak", "p\u1ecd"], ["kwa", "a"], ["ch", "ungu"], ["juli", "kana"], ["ha", "tari"], ["Ba", "hari"], ["ingi", "a"], ["fan", "yi"], ["hu", "toa"], ["shi", "riki"], ["ka", "mbi"], ["zina", "weza"], ["hi", "zi"], ["sa", "firi"], ["fu", "lani"], ["ma", "duni"], ["g", "\u2019"], ["e", "uta"], ["ko", "bi"], ["en", "gumba"], ["ko", "salisa"], ["ba", "mboka"], ["em", "oni"], ["li", "kama"], ["bo", "lukiluki"], ["basan", "go"], ["oku", "laba"], ["sema", "yanja"], ["oku", "mala"], ["wan", "dii"], ["\u07de\u07ca\u07ec", "\u07dd\u07cf\u07ec"], ["\u07db\u07ce", "\u07d8\u07ce\u07f2"], ["\u07e1", "\u07d0\u07ec"], ["\u07de", "\u07cb\u07eb"], ["\u07e1\u07ce", "\u07f0"], ["\u07d3\u07d8\u07cd\u07ec", "\u07d3\u07d8\u07cd\u07ec"], ["\u07dd", "\u07df\u07cd"], ["\u07df\u07ca", "\u07d3\u07ca\u07ef\u07d9\u07ca"], ["\u07d8", "\u07df\u07ca"], ["\u07df\u07ca\u07e5", "\u07df\u07cc\u07ec"], ["\u07d5", "\u07cc\u07eb"], ["\u07d6", "\u07cc\u07eb"], ["\u07de\u07d9", "\u07cf"], ["\u07de", "\u07d8\u07ce"], ["\u07dc\u07cf\u07ec\u07d9\u07cf\u07f2\u07ec", "\u07dc\u07ca"], ["\u07dd\u07d9\u07cd", "\u07d5\u07cd"], ["\u07d3", "\u07db\u07cc\u07ec"], ["\u07d6", "\u07cb\u07ec"], ["\u07d5\u07ca", "\u07df\u07cc\u07f2"], ["\u07d9", "\u07cf\u07eb"], ["\u07de\u07ce\u07f2\u07ec\u07e0\u07ca\u07ec", "\u07db\u07cc\u07ee"], ["\u07df\u07d0\u07f2\u07de\u07cf", "\u07d5\u07cc\u07ee"], ["\u07e1", "\u07cc\u07f2\u07eb"], ["\u07d8", "\u07ca\u07f2\u07eb"], ["\u07de\u07ca\u07ec", "\u07e3\u07cc\u07f2\u07eb"], ["\u07e6\u07cb", "\u07d9\u07cb\u07f2"], ["\u07dd", "\u07d5\u07cc"], ["\u07c0\u07c0", "\u07c0"], ["\u07cf\u07f2", "\u07eb"], ["\u07e6", "\u07ca\u07f2"], ["en", "t"], ["fi", "c"], ["c", "ce"], ["n", "ri"], ["n'", "okpuru"], ["n", "t\u1ee5"], ["o", "zu"], ["la", "zima"], ["mo", "in"], ["go", "l"], ["da", "bba"], ["madi", "t"], ["ili", "wo"], ["a", "ho"], ["o", "p"], ["va", "vy"], ["ah", "yi"], ["ba", "ll"], ["w", "."], ["anan", "kira"], ["\u12ad", "\u1265"], ["\u0254", "hy\u025b"], ["\u12de", "\u121d"], ["\u1265\u1228", "\u1275"], ["\u130d", "\u12f5"], ["g", "gi"], ["ga", "ari"], ["\u1235", "\u1275"], ["\u12a5\u1295\u1328", "\u1275"], ["\u0292", "iya"], ["vo", "lo"], ["ku", "no"], ["nga", "i"], ["g", "'"], ["ri", "ga"], ["ju", "m,"], ["\u0254", "l\u025b"], ["gu", "di"], ["ba", "kka"], ["mu", "d"], ["mashiz", "ha"], ["na", "sa"], ["en", "te"], ["la", "wa"], ["ma", "jum"], ["si", "ra"], ["ti", "le"], ["ol", "we"], ["wan", "si"], ["ga", "so"], ["w", "wan"], ["ti", "ri"], ["p", "ha"], ["N", "A"], ["ta", "'"], ["\u1218\u122c", "\u1275"], ["omu", "ddo"], ["ke", "lasi"], ["oy", "qq"], ["\u12e8\u121a", "\u12eb"], ["mi", "bali"], ["to", "kko"], ["kpa", "r"], ["ng", "we"], ["\u12a5", "\u1305"], ["co", "ra"], ["es", "su"], ["run", "di"], ["wa", "ti"], ["kwe", "ra"], ["bin", "gi"], ["\u0254", "si"], ["v", "\u028b"], ["twa", "la"], ["in", "u"], ["K", "an"], ["ne", "en"], ["ru", ","], ["b\u025b", "r\u025b"], ["ta", "bo"], ["dhi", "li"], ["\u120e", "\u121d"], ["len", "g"], ["tan", "\u0269"], ["ga", "ali"], ["tin", "do"], ["e", "sala"], ["p", "las"], ["cen", "g"], ["d", "ani"], ["tti", "di"], ["to", "ri"], ["d", "rin"], ["ko", "ro"], ["qaa", "q"], ["o", "wa"], ["ye", "re"], ["ka", "dde"], ["ke", "ke"], ["si", "e"], ["enda", "la"], ["ni", "raba"], ["fu", "s"], ["\u0199", "o"], ["ma", "pa"], ["ra", "uni"], ["aj", "wire"], ["tu", "uka"], ["\u028b", "e"], ["v", "un"], ["la", "fa"], ["mma", "te"], ["le", "ta"], ["bi", "rin"], ["pu", "bli"], ["ko", "mo"], ["u", "wa"], ["anya", ","], ["se", "ra"], ["ga", "sa"], ["em", "yaka"], ["leeli", "ttanno"], ["chu", "ma"], ["pi", "ra"], ["J", "e"], ["i", "to"], ["kin", "tu"], ["a\u0300", "ti"], ["y\u00ed", "\u00f2"], ["Bal", "tic"], ["bur", "g,"], ["n\u00ed", "tor\u00ed"], ["Ja", "pani"], ["\u00e0", "m\u00ec"], ["ke", "j\u00ec"], ["\u00ec", "t\u00e0"], ["d", "\u1eb9\u0301"], ["\u1eb9gb\u1eb9\u0300", "r\u00fan"], ["mi", ")"], ["b", "\u1ecd\u0301"], ["k\u00fa", "r\u00f2"], ["a", "p\u00e1"], ["ur", "g"], ["ki", "\u0301"], ["ib", "\u00f9"], ["da", "\u0301"], ["n\u00edgb\u00e0", "t\u00ed"], ["b", "\u1eb9\u0301\u1eb9\u0300"], ["m", "\u00ec\u00ed"], ["or\u00edl\u1eb9\u0300", "\u00e8d\u00e8"], ["Mar", "telly"], ["n\u00e1\u00e0", ","], ["\u00f2", "\u00f2"], ["Olimpi", "ki"], ["n", "\u0300"], ["\u1eb9", "l\u1eb9\u0301"], ["Uni", "ted"], ["os", "pi"], ["N", "et"], ["Gran", "de"], ["Q", "ing"], ["B", "lack"], ["G", "ing"], ["Ging", "rich"], ["Co", "penha"], ["ter", "s"], ["Whi", "te"], ["White", "ha"], ["Whiteha", "ll"], ["Rom", "ne"], ["Austra", "li"], ["B", "ro"], ["A", "fir"], ["Amur", "ka"], ["za", "ga"], ["wu", "rar"], ["wurar", "en"], ["shi", "da"], ["dan", "gan"], ["ka", "shin"], ["ha", "sa"], ["so", "jo"], ["kasan", "cewa"], ["ta", "kar"], ["binci", "ken"], ["ba", "yar"], ["man", "u"], ["na-e", "ji"], ["u", "zo"], ["ek", "we"], ["n'", "elu"], ["na", "r\u1ecb"], ["n'", "ihe"], ["ag", "\u1ee5"], ["chi", "che"], ["\u1ecd", "ta"], ["sh", "\u1ecdn"], ["na-", "ar\u1ee5"], ["y", "\u1ecb"], ["\u1ecb", "b\u1ee5"], ["nle", "ta"], ["Egwu", "regwu"], ["nwo", "ke"], ["i", "zu"], ["na", "kwa"], ["o\u0300tu", "\u0300"], ["b\u1ecd\u1ecd", "l\u1ee5"], ["wali", "o"], ["m", "kuu"], ["uwe", "ze"], ["uweze", "kano"], ["yali", "yo"], ["jeru", "mani"], ["we", "zi"], ["saba", "bisha"], ["ki", "mataifa"], ["m", "refu"], ["I", "kiwa"], ["p", "ungu"], ["m", "kubwa"], ["una", "weza"], ["mw", "ingine"], ["vu", "ti"], ["vi", "za"], ["Eta", "ts"], ["Etats", "-"], ["Etats-", "Uni"], ["ebande", "li"], ["Ja", "pon"], ["loko", "la"], ["ko", "landa"], ["ko", "fanda"], ["eza", "la"], ["nko", "mbo"], ["po", "int"], ["eki", "pe"], ["Al", "lema"], ["p", "resident"], ["serenge", "ta"], ["en", "yonyi"], ["oku", "fu"], ["nyon", "yi"], ["san", "vu"], ["kii", "ka"], ["g", "w\u2019"], ["na", "ku"], ["\u07e1\u07cc\u07ec", "\u07d9\u07cc\u07f2\u07ec"], ["\u07c1", "\u07c6"], ["\u07de", "\u07db\u07ca"], ["\u07d5", "\u07ce\u07f2"], ["\u07d8\u07ca", "\u07e5"], ["\u07d9", "\u07ca\u07eb"], ["\u07df\u07ca", "\u07d5\u07ca\u07f2\u07ec"], ["\u07e5", "\u07db\u07ca\u07ec"], ["\u07e5\u07d9\u07cf\u07ec", "\u07d8\u07ce\u07ee"], ["\u07d6\u07cd\u07f2", "\u07db\u07cd\u07f2"], ["\u07df\u07ca", "\u07de\u07ce"], ["\u07e1\u07ca\u07ec", "\u07d8\u07cf\u07ec\u07e3\u07cc\u07f2\u07ec"], ["\u07de\u07f5", "\u07cc"], ["\u07d8\u07ce\u07f0", "\u07de\u07df\u07cf"], [")", "\u07f8"], ["\u07d6\u07ca\u07ec", "\u07d5"], ["\u07de\u07ce\u07ec\u07d9\u07ce\u07f2\u07ec", "\u07d8\u07ce\u07ec"], ["\u07e6\u07ca\u07ec", "\u07df\u07cc"], ["\u07dc\u07cd", "\u07df\u07cd\u07f2"], ["\u07df\u07ca", "\u07f2\u07ec"], ["\u07cf", "-"], ["\u07dc", "\u07cb\u07ec"], ["\u07db", "\u07f4\u07ca\u07ec"], ["\u07e1\u07cc", "\u07d8\u07ca"], ["\u07db\u07ce", "\u07ef\u07e6\u07ca"], ["\u07e2", "\u07cc\u07ec"], ["\u07de\u07d0\u07dd", "\u07df\u07cc"], ["\u07dd", "\u07cb"], ["\u07de", "\u07df\u07cf\u07ec"], ["\u07df\u07ca\u07e1", "\u07cc\u07e3\u07cc\u07f2"], ["\u07d6\u07cc", "\u07de\u07d3\u07ca"], ["\u07de", "\u07d5\u07cf"], ["\u07d5\u07ca\u07ef\u07e1\u07ca", "\u07e5"], ["\u07e1", "\u07ce\u07f2\u07eb"], ["\u07df\u07ca\u07e5", "\u07ca\u07f2\u07ec"], ["tran", "s"], ["b", "\u1eb9\u0301"], ["n", "\u00f9"], ["d", "\u1ecd\u0300"], ["n", "\u00e1"], ["tabba", "tar"], ["tsa", "ye"], ["ko", "wa"], ["do", "le"], ["bi", "ya"], ["na", "r"], ["n'", "\u1ee5"], ["mape", "ma"], ["mi", "tano"], ["p", "endeke"], ["ka", "di"], ["m", "simu"], ["\u1348", "\u120d"], ["\u122e", "\u127d"], ["es", "t"], ["vu", "."], ["b", "\u00e9"], ["lo", "ori"], ["yu", "bo"], ["ka", "k"], ["dhi", "rugavu"], ["i", "san"], ["piki", "piki"], ["su", "di"], ["s\u0254g", "l\u0254"], ["d", "\u025b"], ["maint", "y"], ["sa", "rin"], ["oku", "sinzi"], ["\u12f0", "\u122d"], ["bo", "ma"], ["ku", "ny"], ["Ma", "daga"], ["\u12dd\u1270\u1348\u120b\u1208", "\u12e9"], ["\u1276", "\u121d"], ["\u1260", "\u1270"], ["\u1320", "\u1228"], ["\u12ce", "\u1279"], ["am", "bon"], ["\u1208", "\u1265"], ["toko", "a"], ["too", "ta"], ["fa", "yya"], ["dozi", "m"], ["li", "si"], ["i", "v"], ["fi", "ra"], ["du", "lo"], ["bar", "baa"], ["han", "da"], ["ma", "shin"], ["p", "ana"], ["ta", "tta"], ["nya", "ma"], ["\u0256", "o"], ["pi", "ri"], ["mu", "ro"], ["\u025b", "re"], ["l", "ino"], ["i", "yo"], ["K", "un"], ["\u12d5", "\u12f3"], ["rosa", "ano"], ["mera", "y"], ["tun", "da"], ["k", "ke"], ["a", "dda"], ["di", "ki"], ["wa", "bula"], ["en", "nyo"], ["hay", "yo"], ["yawan", "ci"], ["kuu", "ma"], ["kee", "hi"], ["ma", "da"], ["\u025b", "l\u028b"], ["b\u0254", "b\u0254"], ["gbu", "bi"], ["ga", "\u014b"], ["\u12a0", "\u1209\u1362"], ["\u0192", "\u028b"], ["ga", "ara"], ["bin", "i"], ["ny", "\u0254"], ["v", "\u0254ge"], ["don", "go"], ["\u12ed", "\u1218\u1235"], ["kha", "le"], ["ki", "re"], ["b", "bi"], ["\u1260", "\u1228"], ["\u121c", "\u1275"], ["mo", "ro"], ["l", "ye"], ["u", "re"], ["le", "ddi"], ["\u1230", "\u122d"], ["\u12f0", "\u12cd"], ["ne", "zvi"], ["ha", "t"], ["sa", "bila"], ["kin", "gi"], ["H", "e"], ["wan", "o"], ["\u12a8", "\u12cd\u1295"], ["A", "le"], ["bu", "nya"], ["me", "ri"], ["yel", "low"], ["we", "ta"], ["aba", "mu"], ["en", "ni"], ["ze", "bwa"], ["saa", "dha"], ["zi", "ya"], ["\u1230\u1263", "\u1275"], ["p", "he"], ["ka", "de"], ["ga", "m"], ["gan", "da"], ["diri", "mi"], ["T", "an"], ["\u12f0", "\u1242"], ["\u120d", "\u1265\u1235"], ["on", "di"], ["bu", "ta"], ["o", "yi"], ["o", "bwe"], ["lan", "no"], ["te", "es."], ["oku", "si"], ["'ne", "emmo"], ["te", "ba"], ["K", "asi"], ["ku", "si"], ["mun", "si"], ["mu", "la"], ["ru", "s"], ["ala", "."], ["yuu", "ma"], ["mpa", "ka"], ["E", "r"], ["c", "co"], ["g", "wanga"], ["ki", "tundu"], ["e", "so"], ["a", "pa"], ["di", "di"], ["\u0257", "\u0269"], ["e", "dda"], ["x", "as"], ["e", "banda"], ["hu", "tu"], ["me", "a"], ["ta", "ura"], ["san", "gana"], ["g", "s"], ["sana", "."], ["b", "yen"], ["awa", "mu"], ["po", "te"], ["ma", "sanga"], ["han", "de"], ["me", "ju"], ["ge", "ri"], ["ma\u0301", "a"], ["\u00e0", "l\u00e0"], ["\u00f2", "\u0323"], ["p\u00e8", "s\u00e8"], ["g", "\u00ed"], ["gb", "on"], ["\u00ecd\u00e1", "ra"], ["t", "\u00fa"], ["o", "\u1e63\u00f9"], ["ar\u00ecn", "r\u00ecn"], ["\u1ecc", "\u0300"], ["h", "\u00f9n"], ["m\u1eb9\u0301", "ta"], ["M", "S"], ["l\u1ecd", "."], ["ab", "\u1eb9\u0301"], ["Alon", "so"], ["P", "N"], ["kan", ","], ["(", "3"], ["p\u00e0", "\u00e1"], ["mbo", "urg"], ["the", "r"], ["p\u00f2", "\u0323"], ["oku", "n"], ["\u00ec", "m\u1ecd\u0300"], ["eni", "a"], ["A", "dam"], ["p", "\u00f3"], ["S", "ai"], ["A", ")"], ["d\u00ec", "b\u00f2"], ["ne", "u"], ["Ma", "l"], ["s", "tu"], ["ik", "\u1ecd\u0300"], ["\u00e0", "y\u00e8"], ["tun", "tun"], ["sco", "pe"], ["s\u00e0", "fih\u00e0n"], ["I", "ce"], ["fa", "ran"], ["J", "am"], ["Bra", "zi"], ["Singa", "po"], ["D", "ani"], ["M", "ini"], ["du", "st"], ["Gran", "d"], ["H", "5"], ["H5", "N"], ["mi", "les"], ["bam", "ban"], ["zi", "yar"], ["daida", "i"], ["yu", "kan"], ["man", "yan"], ["kan", "anan"], ["are", "wa"], ["kun", "shi"], ["4", "00"], ["shakata", "wa"], ["ga", "sar"], ["tse", "ren"], ["\u0199ar", "in"], ["ba", "kin"], ["\u0253", "anga"], ["(", "na"], ["han", "ya"], ["\u0199", "in"], ["jin", "si"], ["Is", "ra"], ["ah", "\u1ecba"], ["e", "chiche"], ["ike", "."], ["nwan", "y\u1ecb"], ["chi", "e"], ["\u1ecd", "la"], ["b", "\u1ecba"], ["ek", "wu"], ["na-e", "gosi"], ["pu", "tara"], ["hi", "fa"], ["hifa", "dhi"], ["H", "ata"], ["na", "fasi"], ["U", "jerumani"], ["vi", "de"], ["ba", "do"], ["inge", "reza"], ["ki", "dogo"], ["at", "hiri"], ["zi", "me"], ["hudu", "ma"], ["mbi", "o"], ["ka", "ska"], ["kaska", "zini"], ["ten", "gen"], ["tengen", "eza"], ["ende", "lea"], ["kute", "mbe"], ["an", "zi"], ["oku", "wa"], ["tek", "nolo"], ["balin", "gaka"], ["maka", "si,"], ["eye", "bana"], ["ba", "sale"], ["ban", "zela"], ["ko", "zon"], ["mobi", "mba."], ["bak", "endaka"], ["nsa", "mbo"], ["zinga", "zinga"], ["obu", "n"], ["eb", "y\u2019"], ["B", "wo"], ["om", "waka"], ["oku", "zi"], ["kya", "sinze"], ["tambu", "ze"], ["mba", "gano"], ["\u07df", "\u07ca\u07f2\u07eb"], ["\u07dd\u07cc\u07ec", "\u07df\u07ca\u07eb"], ["\u07d7", "\u07cd"], ["\u07de", "\u07df\u07cc"], ["\u07d3\u07d0", "\u07df\u07cc"], ["\u07ce\u07f2", "\u07e0\u07cc\u07f2"], ["\u07de\u07cd", "\u07e2\u07ca"], ["\u07de\u07ca", "\u07d9\u07ca\u07f2"], ["\u07e1\u07ce\u07e3", "\u07ce\u07f2\u07ec"], ["\u07e6\u07cc", "\u07d8\u07ca"], ["\u07de\u07cb\u07ec", "\u07df\u07cb\u07f2\u07ec"], ["\u07db\u07ca\u07f2", "\u07de\u07ca"], ["\u07de\u07cf\u07db\u07d3\u07cd\u07eb", "."], ["\u07d5\u07cd\u07eb", "."], ["\u07e3", "\u07ce"], ["\u00bb", "."], ["\u07d8\u07cc", "\u07e6\u07ca"], ["\u07dc\u07cf\u07ec\u07d9\u07cf\u07f2\u07ec\u07dc\u07ca", "\u07d9\u07ca\u07f2"], ["\u07e2", "\u07cc"], ["\u07d3\u07db\u07cc\u07ec", "\u07de\u07cc\u07ec"], ["\u07db\u07ca", "\u07e6\u07cc"], ["\u07d5", "\u07d0\u07f2\u07eb"], ["\u07e6\u07cc", "\u07d8\u07ca\u07eb"], ["\u07ca\u07ec", "\u07df\u07cb"], ["\u07dd\u07cd\u07ec", "\u07f8"], ["\u07d3\u07df\u07cf\u07eb", "."], ["\u07dd\u07cf", "\u07e6\u07cc\u07eb"], ["\u07db\u07d3\u07cd", "\u07d8\u07ca"], ["\u07df\u07cc\u07f2", "\u07d3\u07ca\u07f2"], ["\u07e1", "\u07cf"], ["\u07d2", "\u07de\u07cf"], ["\u07e1\u07ca\u07f2", "\u07d8\u07ce\u07ef"], ["\u07de\u07ce\u07f2\u07ec\u07d5", "\u07cb\u07df\u07cb\u07f2"], ["\u07ca", "\u07e1\u07cb"], ["b", "re"], ["p", "re"], ["\u1e63", "\u00e1"], ["d\u00e1", "a"], ["\u1e63", "\u00ed"], ["far", "kon"], ["tai", "maka"], ["wa", "yar"], ["ma", "'"], ["n'", "\u1ee5l\u1ecd"], ["m", "bin"], ["tambu", "li"], ["\u1278", "\u12cd\u1362"], ["de", "."], ["p", "te"], ["la", "\u0263"], ["ni", "riba"], ["zu\u0263u", "saa"], ["g", "bibi"], ["blu", "e"], ["h\u0254", "n"], ["kun", "gu"], ["g", "li"], ["fa", "m"], ["gi", "i"], ["bol", "lan"], ["bi", "do"], ["e", "\u025b"], ["tran", "o"], ["\u122d", "\u121b"], ["\u1208", "\u12eb"], ["ba", "jwaire"], ["si", "bwa"], ["la", "bo"], ["ho", "e"], ["tuntu", "m"], ["a", "konnwa"], ["k", "\u00f5"], ["k\u00f5", "\u0254"], ["g", "\u00e3"], ["i", "a"], ["sin", "e"], ["\u1325", "\u1295"], ["\u1334", "\u12db"], ["\u1262", "\u12eb"], ["o", "vana"], ["a", "vo"], ["kara", "zana"], ["un", "go"], ["mi", "to"], ["s", "\u028b"], ["nde", "r"], ["iya", "a"], ["nn", "yanja"], ["mu", "soro"], ["sa", "l"], ["lya", "to"], ["\u12a8", "\u1265"], ["ka", "lu"], ["\u0254", "b\u025b"], ["ki", "muli"], ["\u1234", "\u1275"], ["fan", "anyi"], ["mi", "sha"], ["fu", "pi"], ["\u1295", "\u1272"], ["vi", "ri"], ["ik", "ko"], ["E", "le"], ["n'", "ama"], ["B", "e"], ["\u1203", "\u120d"], ["\u12a5\u12e9", "\u1361\u1361"], ["e", "wo"], ["bula", "mu"], ["ga", "te"], ["on", "dii"], ["a", "ana"], ["la", "ma"], ["b", "baa"], ["\u025bk\u028b", "t\u025b"], ["te", "kin"], ["ba", "mine"], ["\u1208\u127d", "\u1362"], ["d", "zwa"], ["ta", "mbola"], ["\u1273", "\u12ca"], ["amaa", "to"], ["gb\u0254", "."], ["\u12ed", "\u1295"], ["ya", "di"], ["e", "fa"], ["F", "o"], ["\u12a8", "\u1260"], ["yin", "um"], ["ri", "i"], ["en", "yuma"], ["ze", "."], ["\u1230", "\u1265"], ["mai", "tso"], ["mo", "bali"], ["ba", "pe"], ["bo", "la"], ["ng", "'a"], ["en", "zi"], ["\u12aa", "\u1293"], ["\u1230", "\u12cd"], ["za", ","], ["m", "yufu"], ["\u120d", "\u12ad"], ["dhi", "ri"], ["ga", "mba"], ["bo", "na"], ["bon", "ek"], ["D", "\u0254"], ["ki", "ro"], ["vi", "a"], ["sh", "shi"], ["ban", "gi"], ["pe", "laa"], ["em", "pare"], ["a", "tan\u0269"], ["bu", "l"], ["shu", "ra"], ["ye", "lo"], ["ay", "ba"], ["en", "yaa"], ["ma", "xaa"], ["kan", "na"], ["B", "in"], ["l\u0254", "\u025b"], ["ne", "ma"], ["le", "se"], ["ara", "a"], ["u", "yu"], ["lan", "ga"], ["tta", "ka"], ["maa", "so"], ["tari", "hi"], ["ki", "biina"], ["we", "le"], ["non", "de"], ["\u0253", "ok"], ["tono", "tono"], ["es", "engeli"], ["kpo", "\u014b"], ["ma", "\u0253"], ["yi", "zi"], ["ma", "kon"], ["ru", "tivi"], ["o", "so"], ["ek", "ana"], ["z", "ani"], ["e", "pe"], ["K", "ana"], ["pi", "ta"], ["ku", "za"], ["di", "ya"], ["ri", "s"], ["si", "ta"], ["la", "'"], ["c", ","], ["eki", "buga"], ["tu", "re"], ["Z", "a"], ["fu", "."], ["\u2019", "i"], ["ra", "di"], ["S", "h"], ["esale", "maka"], ["u", "to"], ["mai", ","], ["b", "yonna"], ["b", ","], ["rin", "i"], ["f", "fo"], ["tu", "li"], ["ste", "eti"], ["ddu", "ka"], ["en", "se"], ["me", "li"], ["ta", "wa"], ["do", "re"], ["ba", "sobola"], ["p", "pa"], ["7", "6"], ["a", "gbe"], ["m\u1eb9\u0301", "rin"], ["\u00e0", "gb\u00e9"], ["y", "\u00ec"], ["\u00e0", "p\u1eb9"], ["mo", "le"], ["German", "y"], ["ka", "ro"], ["A", "D"], ["n", "la"], ["ta", "\u0300"], ["che", "r"], ["Lu", "xe"], ["Luxe", "mbourg"], ["\u00e8", "l\u00f2"], ["s", "ter"], ["pe", "re"], ["A", "\u0300"], ["j", "\u00f3"], ["Super-G", "."], ["a", "\u0301"], ["bo", "r\u00ed"], ["P", "olo"], ["p\u00e8", "\u0323"], ["(N", "S"], ["m\u00ec\u00ed", "r\u00e0n"], ["n\u00ed", "nu"], ["ih", "\u00f2"], ["b\u1eb9\u0300", "w\u00f2"], ["Pa", "ci"], ["Disne", "y"], ["f", "\u1ecdw\u1ecd\u0301"], ["n\u00ed", "l\u00f2"], ["AC", "TA"], ["F", "ati"], ["yi", "\u0301"], ["y\u1eb9\u0300", "w\u00f2"], ["Z", "Ma"], ["ZMa", "pp"], ["x", "y"], ["P", "rin"], ["Sta", "tes"], ["Brazi", "l"], ["S", "lo"], ["4", "."], ["E", "d"], ["T", "as"], ["Copenha", "gen"], ["le", "i"], ["4", "9"], ["tar", "c"], ["L", "ak"], ["Sin", "gh"], ["A", "P"], ["ti", "ere"], ["S", "er"], ["MR", "I"], ["en", "gen"], ["Ma", "ta"], ["D", "ama"], ["ne", "r"], ["Ar", "m"], ["bir", "nin"], ["ay", "yukan"], ["mutu", "m"], ["kam", "fanin"], ["ta", "shi"], ["lafi", "ya"], ["A", "I"], ["ro", "rin"], ["5", "6"], ["tar", "on"], ["wu", "ce"], ["san", "an"], ["\u0199", "ungi"], ["Ja", "mu"], ["\u2018", "yan"], ["Du", "k"], ["Ma", "jalisar"], ["S", "hu"], ["kwa", "llon"], ["ke", ","], ["g\u1ecd\u1ecd", "menti"], ["ntu", "li"], ["r\u1ee5", "r\u1ee5"], ["ak\u1ee5", "k\u1ecd"], ["ogi", "ge"], ["nk", "\u1ecbt\u1ecb"], ["\u1ecb", "n\u1ecd"], ["man", "\u1ee5"], ["akwa", "do"], ["ma", "\u1ecb"], ["\u1ecb", "ntan"], ["\u0304", "\u1ee5"], ["na-a", "ch\u1ecd"], ["E", "nwere"], ["ku", "fu"], ["wa", "po"], ["m", "moja"], ["hu", "enda"], ["k", "wani"], ["ku", "fanya"], ["ali", "sema"], ["zi", "ada"], ["ba", "dili"], ["pe", "kee"], ["ki", "tu"], ["u", "chu"], ["ny", "um"], ["nyum", "bani"], ["kufi", "kia"], ["shin", "da"], ["mp", "ya"], ["thelu", "ji"], ["jari", "bu"], ["vi", "li"], ["vi", "si"], ["un", "dwa"], ["ma", "ani"], ["eko", "lo"], ["Etats-Uni", "s"], ["bongo", "la"], ["emon", "ana"], ["mi", "beko"], ["zwa", "ka"], ["pesa", "ki"], ["li", "bwa"], ["emoni", "si"], ["siko", "yo"], ["mona", "ki"], ["Allema", "gne"], ["bango", ","], ["n", "kola"], ["ma", "anyi"], ["go", "bere"], ["ezi", "singa"], ["b", "w\u2019"], ["\u07e3\u07cd\u07f2", "\u07d3\u07ca"], ["\u07d3\u07d0\u07e3\u07cd\u07f2", "\u07e2\u07d0\u07f2\u07f0\u07e1\u07ca"], ["\u07d6\u07ce", "\u07ef"], ["\u07e1\u07cc\u07ec\u07d9\u07cc\u07f2\u07ec", "\u07d8\u07cc"], ["\u07d3", "\u07cb\u07ec"], ["\u07db\u07ca\u07ec", "\u07e1\u07ca\u07f2\u07ec"], ["\u07df\u07cf\u07f2", "\u07eb"], ["\u07db\u07cb\u07f2\u07ec", "\u07dd\u07cd\u07ec"], ["\u07d3\u07d8\u07cd\u07ec\u07d3\u07d8\u07cd\u07ec", "\u07df\u07cc"], ["\u07df\u07cc\u07ec", "\u07df\u07ca"], ["\u07e4", "\u07ca\u07f2"], ["\u07d9", "\u07ce\u07f2"], ["\u07d8", "\u07ce\u07eb"], ["\u07e2\u07cc\u07e3\u07cc\u07f2", "\u07eb"], ["\u07d8", "\u07cb\u07f2\u07ec"], ["\u07d5\u07cb\u07ec", "\u07df\u07cb"], ["\u07d9\u07cd", "\u07f2\u07ec"], ["\u07df\u07f4\u07ca\u07ec", "\u07df\u07ce\u07ec"], ["\u07e6", "\u07cc\u07f2"], ["\u07d9", "\u07d0\u07f2"], ["\u07de\u07e3\u07d0\u07eb", "\u07f8"], ["\u07e2\u07d0\u07f2", "\u07ef\u07e6\u07ca"], ["\u07d7\u07cf", "\u07ef\u07e6\u07ca\u07eb"], ["\u07d3\u07ce", "\u07ef"], ["\u07d4", "\u07d0\u07f2\u07eb"], ["\u07d5\u07cf\u07f2", "\u07d8\u07cb\u07eb"], ["\u07e2\u07ca", "\u07df\u07cc"], ["\u07d8\u07d0", "\u07f2\u07ec"], ["\u07de\u07d0", "\u07db\u07ca\u07ec"], ["\u07de\u07d9", "\u07ca"], ["\u07d2\u07ec", "\u07d8\u07d0\u07ec"], ["\u07c1", "\u07c0"], ["\u07de\u07ca\u07ec", "\u07e6\u07cc"], ["\u07de\u07ca\u07ec\u07e6\u07cc", "\u07ef"], ["\u07c2", "\u07c0\u07c0"], ["\u07e1", "\u07ce\u07f2\u07ec"], ["\u07e1\u07ce\u07f0", "\u07e1\u07cd"], ["\u07de", "\u07cb\u07f2\u07ec"], ["-", "\u07cf-"], ["\u07d9", "\u07cf\u07ec"], ["\u07de\u07ca\u07ec", "\u07d3\u07cc"], ["\u07de\u07ca\u07ec\u07d3\u07cc", "\u07ef"], ["\u07db\u07ca\u07f2", "\u07d6\u07cc\u07eb"], ["\u07c1", "\u07c1"], ["\u07dd\u07ca", "\u07e6\u07cc\u07d8\u07ca\u07eb"], ["\u07e1", "\u07f5\u07ca\u07ec"], ["\u07d5\u07ca\u07ef", "\u07e1"], ["\u07db\u07cd", "\u07f2\u07ec"], ["\u07df\u07d0\u07ec", "\u07d8\u07ce\u07ee"], ["\u07d9\u07d0", "\u07f2\u07ec"], ["\u07d5\u07d0", "\u07ef"], ["\u07db", "\u07d3\u07cd\u07ec"], ["\u07d8", "\u07df\u07cc"], ["\u07dd\u07ca\u07ec\u07d8\u07cc\u07ec\u07e1\u07ca\u07ec", "\u07de\u07df\u07cf"], ["\u07d3\u07ca", "\u07ef\u07e6\u07ca"], ["\u07de\u07ca\u07ec", "\u07dd\u07cf"], ["\u07d2\u07de\u07cf", "\u07df"], ["\u07d5\u07ca\u07ef\u07e1\u07ca\u07e5", "\u07df\u07cc"], ["\u07de\u07df\u07cf", "\u07de\u07d5\u07cf"], ["\u07dd\u07d0", "\u07df\u07cc"], ["\u07d8\u07d0", "\u07ef\u07e6\u07ca\u07eb"], ["\u07ca\u07e1\u07cb", "\u07d9\u07cc"], ["\u07ca", "\u07df\u07ce\u07eb"], ["ta", "ble"], ["mo", "r"], ["ing", "s"], ["den", "ti"], ["d", "."], ["\u00e0", "\u00e1"], ["gb", "\u1ecd\u0300"], ["\u00e0", "k\u1ecd"], ["gb", "\u00ed"], ["kama", "ta"], ["dau", "kar"], ["ci", "ki"], ["shi", "gar"], ["ama", "la"], ["nche", "kwa"], ["mma", "."], ["zaidi", "."], ["z", "oni"], ["\u1201", "\u1208\u1275"], ["\u1308", "\u120d"], ["'", "ar"], ["su", "r"], ["re", "s"], ["ne", ","], ["do", "w"], ["N", "iri"], ["baay'", "ee"], ["A", "k"], ["ija", "ar"], ["en", "."], ["n", "ha"], ["bi", "ta"], ["sin", "o"], ["ani", "m."], ["\u025b", "\u0199"], ["a\u0263", "la"], ["\u025b", "t\u028b"], ["Mme", "rante\u025b"], ["mii", "shsha"], ["al", "ba"], ["f", "ini"], ["nky\u025bn", "."], ["anankira", "y"], ["\u12a5", "\u122d"], ["Aba", "ana"], ["mu", "tare"], ["eri", "mu"], ["mo", "a"], ["oru", "ko"], ["li", "pa"], ["mac", "ol"], ["ana", "tin"], ["ir", "eny"], ["\u12a0", "\u1260"], ["\u12a8", "\u134d"], ["\u1320\u1228", "\u1334\u12db"], ["\u1327", "\u120d\u1362"], ["ei", "subi"], ["\u1240", "\u1218"], ["\u1232\u1206\u1295", "\u1363"], ["ma", "vo"], ["ga", "baa"], ["ke", "essaa"], ["iv", "li"], ["dhan", "no"], ["ha", "s"], ["bi", "bin"], ["N", "daba"], ["ma", "zzi"], ["K", "e"], ["maa", "to"], ["\u0192o", "\u0192o"], ["W\u0254", "n"], ["vol", "on"], ["bisa", "ala"], ["mee", "tsi"], ["po", "ta"], ["win", "y"], ["leel", "li"], ["dz", "\u0254"], ["ebyo", "ku"], ["nde", "eba"], ["in", "yi"], ["hu", "wan"], ["aga", "a"], ["chi", "ri"], ["he", "mbe"], ["v", "l\u025b"], ["do", "ya"], ["n", "to"], ["en", "ho"], ["\u12ad\u12f3", "\u1295"], ["i", "ma"], ["ak", "\u028b"], ["aka", "ri"], ["i", "hany"], ["\u1275", "\u1348\u120d"], ["b", "bu"], ["zi", "ba"], ["wa", "\u0257a"], ["p", "."], ["go", "o"], ["I", "R"], ["c", "aa"], ["w", "wa"], ["se", ","], ["su", "wan"], ["kuni", "s"], ["mu", "a"], ["\u1290", "\u12cd"], ["aka", "pfeka"], ["dhu", "ri"], ["\u1260", "\u12a9"], ["asi", "."], ["\u12a8", "\u1270"], ["ra", "y"], ["maa", "yu"], ["i", "ba"], ["mi", "susu"], ["li", "sano"], ["de'iya", "a"], ["ban", "tta"], ["mee", "shaa"], ["M", "A"], ["\u025b", "ku"], ["k", "\u028a"], ["ye", "le"], ["suu", "raa"], ["ani", "dha."], ["mu", "toka"], ["ngwe", "c"], ["man", "."], ["n", "no"], ["en", "goye"], ["g", "yo"], ["tambu", "za"], ["\u1235\u122b", "\u1215"], ["r", "w'"], ["ez", "in"], ["ch", "cha"], ["mo", "la"], ["l\u0254", "m\u0254"], ["yinum", "moro"], ["r", "ra"], ["\u12a6", "\u121d"], ["in", "ti"], ["om", "wa"], ["tun", "u"], ["bi", "biri"], ["mu", "kono"], ["du", "ro"], ["ja", "r"], ["\u12d8\u1208", "\u1293"], ["\u121d\u130d", "\u1262"], ["\u0254", "v\u025b"], ["\u1218", "\u12aa\u1293"], ["wu", "ka"], ["ok", "wo"], ["og", "wo"], ["\u025b", "na"], ["\u121b", "\u122d"], ["mbe", "re"], ["a", "yu"], ["ar", "yo"], ["wanda", "."], ["qaba", "a"], ["\u1240\u12ed", "\u1215"], ["\u12a5\u1295\u1275", "\u12a8\u12cd\u1295"], ["\u1345", "\u12cb"], ["ayi", "li"], ["anya", "ma"], ["ay", "\u0254"], ["si", "yana"], ["fu", "ra"], ["isa", "anii"], ["gun", "o"], ["kin", "e"], ["\u12a5", "\u12eb"], ["\u12f6", "?"], ["omu", "lala"], ["\u12ed", "\u1272"], ["ko", "p"], ["ka", "ffa"], ["Van", "hu"], ["so", "ba"], ["ba", "me"], ["mo", "tu"], ["ne", "mi"], ["\u1260", "\u1323"], ["\u12f0", "\u1295"], ["y", "un"], ["eri", "na"], ["a", "biri"], ["in", "drin"], ["indrin", "dra"], ["banda", "ko"], ["ku", "m"], ["ro", "su"], ["m", "pu"], ["c", "ing"], ["nga", "t"], ["ene", "."], ["h", "en"], ["z", "ingi"], ["ge", ","], ["e", "pu"], ["s", "enge"], ["ge", "te"], ["ba", "lobi"], ["\u12ae", "\u134d"], ["u", "lu"], ["la", "bu"], ["g", "ban"], ["fi", "a"], ["ki", "le"], ["ts", "un"], ["hi", "li"], ["ri", "mu"], ["ko", "ku"], ["\u0254", "l\u028b"], ["mu", "mwe"], ["\u129b", "\u12cd"], ["da", "ro"], ["cke", "t"], ["u", "vu"], ["ka", "da"], ["ke", "de"], ["J", "i"], ["en", "yanja"], ["ju", "ba"], ["mo", "\u0254"], ["aba", "li"], ["ha", "kan"], ["an", "ta"], ["ya", "si"], ["in", "ye"], ["\u1265\u12d9", "\u1213"], ["L", "ay"], ["za", "ka"], ["tu", "a"], ["ala", "ma"], ["G", "oo"], ["bango", "."], ["va", "mwe"], ["S", "he"], ["ho", "to"], ["p", "la"], ["mo", "ku"], ["mma", ","], ["me", "chi"], ["yon", "ge"], ["zan", "o"], ["mpenza", "."], ["ji", "na"], ["di", "an"], ["da", "wo"], ["sa", "bon"], ["p", "pan"], ["k", "wana"], ["o", "dun"], ["Tur", "ke"], ["p", "\u00f9"], ["\u00e8", "r\u00f2"], ["w\u00e0", "\u00e1"], ["g", "\u00ec"], ["y", "\u1eb9\u0301"], ["t", "\u00e0n"], ["\u00ec", "tura"], ["Pete", "rs"], ["Cu", "ba"], ["\u00ecd\u00e1ra", "y\u00e1"], ["Ari", "sto"], ["bi", "\u0301"], ["lo", "\u0301"], ["Ma", "roo"], ["ch", "y"], ["N", "oo"], ["pe", "\u0301"], ["\u00f2", "kun"], ["Y", "uro"], ["da", "r\u00ed"], ["\u00e0", "b\u00e1"], ["\u1eb9", "y\u1eb9"], ["o", "d\u00f2"], ["T", "ru"], ["ne", "s"], ["to", "ru"], ["T", "\u00ed"], ["b", "\u00e8"], ["f", "\u00e1"], ["j", "\u00e9"], ["ib\u00f9", "d\u00f3"], ["ph", "en"], ["\u00ec", "w\u1ecd\u0300n"], ["land", ","], ["ny", "\u00ed"], ["p\u00e8\u0323", "l\u00fa"], ["lai", "ti"], ["o", "rin"], ["p\u00e8", "l\u00fa"], ["\u00e0", "j\u1ecd"], ["An", "na"], ["Na", "dal"], ["'", "s"], ["Ice", "land"], ["P", "ot"], ["Pot", "ro"], ["C", "ol"], ["Prin", "ce"], ["ospi", "za"], ["Ma", "u"], ["(N", "u"], ["ch", "kin"], ["Nin", "ten"], ["201", "7,"], ["K", "ar"], ["Te", "xas"], ["c", "tron"], ["Tas", "mani"], ["To", "urs"], ["I", "stan"], ["A", "g"], ["197", "0"], ["US", "OC"], ["S", "por"], ["A", "sso"], ["Asso", "ci"], ["Associ", "ation"], ["2", "50"], ["an", "ce"], ["Pro", "ven"], ["\u00fc", "m"], ["se", "t"], ["Ma", "ra"], ["Bo", "be"], ["S", "tan"], ["Ste", "war"], ["C", "ali"], ["Cali", "for"], ["Califor", "ni"], ["A", "1"], ["A1", "GP"], ["re", "wa"], ["K", "as"], ["Ra", "ju"], ["H", "er"], ["G", "ol"], ["18", "95"], ["19", "4"], ["Mis", "so"], ["Misso", "uri"], ["ho", "g"], ["G", "ali"], ["19", "6"], ["Wa", "san"], ["Afir", "ka"], ["T", "ura"], ["tafiye", "-"], ["yana", "yi"], ["duk", "kan"], ["fa", "him"], ["tsa", "won"], ["sa", "kama"], ["su", "fu"], ["le", "wa"], ["ra", "ge"], ["fa", "din"], ["Yawan", "cin"], ["ha", "ske"], ["wa\u0257an", "nan"], ["\u0199ar", "fi"], ["buka", "tar"], ["gan", "ga"], ["asa", "li"], ["Ma", "ha"], ["Bu", "ffa"], ["Buffa", "lo"], ["n", "kwe"], ["n", "ch\u1ecdp\u1ee5ta"], ["banye", "re"], ["nji", "k\u1ecd"], ["\u1ecd", "w\u1ee5"], ["kar\u1ecb", "r\u1ecb"], ["na-", "enwe"], ["mmiri", ","], ["iki", "ke"], ["n", "nyocha"], ["\u1ee5", "s\u1ee5"], ["ah\u1ee5", "ike"], ["m", "gbochi"], ["an\u1ee5", "man\u1ee5"], ["E", "be"], ["tinye", "re"], ["mman", "ya"], ["ng", "w\u1ee5"], ["m", "kp\u1ecd"], ["ga", "fee"], ["k", "pan"], ["na-a", "d\u1ecb"], ["ke", "bi"], ["hi", "hi"], ["pro", "gra"], ["ambu", "ki"], ["I", "nga"], ["Inga", "wa"], ["ku", "vu"], ["ju", "mu"], ["cha", "che"], ["ngu", "vu"], ["rahi", "si"], ["ta", "yari"], ["wen", "gi"], ["Wana", "sayansi"], ["ha", "bari"], ["mfu", "mo"], ["mwi", "sho"], ["teng", "ene"], ["she", "ria"], ["ba", "hari"], ["inga", "wa"], ["ku", "tano"], ["ulimwen", "gu"], ["p", "wani"], ["uwe", "zo"], ["hi", "lo"], ["li", "wa"], ["za", "ke"], ["chu", "kuli"], ["ho", "teli"], ["amba", "cho"], ["ko", "kota"], ["trans", "port"], ["koko", "ma"], ["e", "salaki"], ["ata", "ko"], ["eb", "endaka"], ["A", "tako"], ["e", "tuka"], ["mingi", "mingi"], ["ba", "salaki"], ["pa", "mba"], ["E", "ropa"], ["eko", "zala"], ["ko", "tia"], ["ko", "batela"], ["lande", "la"], ["ba", "lobaki"], ["biza", "leli"], ["bit", "eni"], ["tende", "ra"], ["m", "bye"], ["emi", "rundi"], ["dde", ","], ["Ne", "wankubadde"], ["n\u2019", "obu"], ["kulembe", "ze"], ["oku", "la"], ["kwata", "gana"], ["wandii", "ko"], ["gavu", "menti"], ["tekin", "olo"], ["g", "ende"], ["\u07d8\u07cb\u07f2", "\u07eb"], ["\u07d6\u07ca\u07ec", "\u07e5"], ["\u07d8\u07d0", "\u07e6\u07d9\u07cc"], ["\u07dc\u07cb\u07d9\u07cb\u07f2", "\u07dc\u07cb\u07d9\u07cb\u07f2"], ["\u07d2\u07ec", "\u07e1\u07ca\u07ec"], ["\u07de\u07ca\u07ec", "\u07d9\u07ca\u07f2\u07ec"], ["\u07de\u07ce\u07f2\u07dd\u07ca\u07f2\u07d3\u07d0", "\u07df\u07cc"], ["\u07d5\u07ce\u07ec\u07e1\u07ca\u07ec", "\u07d8\u07d0\u07eb"], ["\u07de\u07d9", "\u07ce\u07eb"], ["\u07d7", "\u07cd\u07ec"], ["\u07df\u07ca\u07f2", "\u07d8"], ["\u07d3", "\u07cd\u07f2\u07eb"], ["\u07df\u07ca", "\u07db\u07d0\u07ec\u07d8\u07d0\u07f2\u07ec"], ["\u07e1", "\u07cc\u07f2\u07ec"], ["\u07de\u07cf", "\u07f2\u07ec"], ["\u07d6\u07ca\u07ef\u07d3", "\u07d8\u07ca"], ["\u07d3", "\u07e3\u07ca"], ["\u07d8\u07ca\u07f2\u07ec", "\u07d5\u07cd\u07f0"], ["\u07e6\u07cb", "\u07df\u07cc"], ["\u07d6\u07ed", "\u07cc"], ["\u07d6", "\u07e1\u07ca"], ["\u07d8\u07ca\u07ec", "\u07d9\u07cc\u07ec"], ["\u07d8\u07d0", "\u07ef\u07e6\u07ca"], ["\u07db\u07cc\u07f0", "\u07d3\u07ca\u07ee"], ["\u07de\u07ca", "\u07e1\u07ca\u07ec."], ["\u07de", "\u07df\u07cd\u07ec"], ["\u07db\u07cc", "\u07ef"], ["\u07de\u07cd\u07f2", "\u07d8\u07cd"], ["\u07dd", "\u07db\u07ca"], ["\u07de\u07ca", "\u07d5"], ["\u07de\u07cf", "\u07db\u07d0\u07f2\u07ec"], ["\u07e5", "\u07d8\u07cb\u07ec"], ["\u07e2\u07e3\u07ca", "\u07d5\u07cd\u07ef"], ["\u07de\u07f5\u07ca\u07ec", "\u07df\u07ce\u07ec"], ["\u07db\u07ce", "\u07e5\u07ca\u07f2"], ["\u07d8\u07ca", "\u07de\u07ce\u07f2"], ["\u07df", "\u07cd\u07f2\u07eb"], ["\u07e6\u07cb\u07eb", "."], ["\u07dd\u07ed", "\u07cc"], ["\u07df\u07cf", "\u07ef"], ["\u07e2\u07d0", "\u07db\u07cc"], ["\u07d8\u07cf\u07f2\u07ec", "\u07d6\u07df\u07ce\u07ec"], ["\u07dc", "\u07df\u07cd\u07ec"], ["\u07db", "\u07d8\u07cc\u07ec"], ["\u07d8\u07d0", "\u07f2"], ["\u07d8\u07ca\u07f2", "\u07d5\u07ca"], ["\u07d5\u07ca\u07ec", "\u07df\u07cc"], ["c", "y"], ["\u1ecd\u0300", "kan"], ["\u1eb9\u0300", "\u1eb9\u0301"], ["\u1ecdg", "\u1ecd\u0301"], ["ki", "manin"], ["tun", "an"], ["ka", "shi"], ["mi", "na"], ["li", "te"], ["ak", "\u1ecd"], ["ab\u1ee5\u1ecd", "."], ["be", "."], ["vi", "zuri"], ["mati", "babu"], ["idi", "a"], ["ha", "ki"], ["dh", "ini"], ["\u1260", "\u12d3"], ["\u1225", "\u122b"], ["u", "x"], ["li", "sa"], ["mo", "ri"], ["\u0254", "n"], ["en", "dhirugavu"], ["in", "zu"], ["bu", "bu"], ["M", "maa"], ["n", "\u01b4"], ["w", "la"], ["a", "vy"], ["ta", "o"], ["gyina", "gyina"], ["\u0254", "de"], ["ge", "eti"], ["r\u0254", "fo"], ["A", "bo"], ["olo", "na"], ["\u1260", "\u12a0"], ["bari", "yo"], ["mi", "re"], ["ko", "ra"], ["sa", "ti"], ["ana", "ty"], ["zi", "a"], ["p", "\u0254\u0254"], ["la", "co"], ["\u122d", "\u1275"], ["\u1270\u1240\u121d", "\u1320"], ["\u130d", "\u12f3"], ["\u1218", "\u1265"], ["izan", "y"], ["inhu", "ma"], ["fayya", "da"], ["na", "moota"], ["dar", "ban"], ["\u12d8", "\u1218\u1293"], ["\u12d8\u1218\u1293", "\u12ca"], ["la", "hy"], ["la", "va"], ["sa", "t"], ["sat", "ria"], ["tu", "ma"], ["so", "la"], ["be", "a"], ["fi", "taa"], ["yan", "na"], ["omu", "kazi"], ["shi", "ri"], ["ta'u", "u"], ["oku", "li"], ["en", "jeru"], ["E", "ri"], ["zv", "ino"], ["s", "\u0254ge"], ["ta", "s"], ["man", "gi"], ["kwa", "le"], ["\u121d", "\u1205"], ["gee", "shsha"], ["ikki", "ro"], ["n'", "obu"], ["e", "x\u0254"], ["\u1270", "\u1230"], ["\u120b", "\u1275"], ["\u1218", "\u1208"], ["ci", "i"], ["i", "ro"], ["so", "ra"], ["zo", "ro"], ["baa", "ti"], ["kwa", "yo"], ["F", "la"], ["wo", "yi"], ["hee", "ran"], ["ata", "m"], ["atam", "\u0269"], ["m", "\u028b"], ["e", "sa"], ["han", "go"], ["hi", "vavy"], ["me", "le"], ["han", "dha"], ["\u1275\u1348\u120d", "\u1321"], ["kole", "ra"], ["ano", "."], ["phi", "yaa"], ["D", "r."], ["llu", "u"], ["qu", "l"], ["bon", "na"], ["ke", "mi"], ["sa", "te"], ["keehi", "ppe"], ["cin", "ge"], ["a", "lum"], ["wato", "to"], ["ru", "me"], ["horo", "b"], ["dzi", "ri"], ["\u1230", "\u122b"], ["mati", "ti"], ["\u12d8", "\u120e"], ["\u1231", "\u121d"], ["he", "le"], ["q", "on"], ["\u1235", "\u1272"], ["am", "maa"], ["namo", "onni"], ["bin", "om"], ["gbu", "ni"], ["din", "ni"], ["sh\u025b", "li"], ["im", "moo"], ["bon", "e"], ["ezi", "ri"], ["guu", "to"], ["E", "s"], ["\u0254", "w"], ["yaa", "tsi"], ["\u1235", "\u121c\u1275"], ["\u12ed\u1273\u12eb", "\u120d\u1362"], ["zvi", "ri"], ["ku", "bu"], ["san", "go"], ["\u1320", "\u122d"], ["tanga", "ala"], ["\u1218\u1235", "\u120d"], ["eqq", "ida"], ["ma", "lo"], ["o", "ye"], ["tun", "g"], ["ya", "du"], ["emi", "kono"], ["kan", "ya"], ["b", "yuma"], ["\u1261", "\u1293\u121b"], ["yi", "ga"], ["g", "gya"], ["q", "e"], ["y", "yi"], ["mu", "gwagwa"], ["mu", "no"], ["san", "gani"], ["na", "mu"], ["x", "o"], ["tsa", "ki"], ["Ma", "i"], ["v", "ano"], ["ga", "wa"], ["I", "li"], ["kan", "ta"], ["ran", "o"], ["b", "wi"], ["gi", "li"], ["kiraga", "la."], ["pi", "la"], ["ma", "tar"], ["O", "muntu"], ["ka", "yi"], ["yi", "za"], ["oku", "wu"], ["\u12a5\u1295", "\u1235"], ["\u12a5\u1295\u1235", "\u1233"], ["ze", "ere"], ["nyu", "ma"], ["p", "un"], ["be", "ere"], ["ana", ","], ["ma", "leng"], ["gu", "wa"], ["dhaa", "bba"], ["mi", "in"], ["K", "ita"], ["\u12ab", "\u120d"], ["sa", "b"], ["we", "ro"], ["eki", "zimbe"], ["sen", "te"], ["ti", "in"], ["K", "on"], ["do", "g"], ["o", "tal"], ["i", "so"], ["\u12f0", "\u130d"], ["zi", "si"], ["si", "mba"], ["\u12ad", "\u122d"], ["le", "mbe"], ["qaa", "quullu"], ["ka", "tra"], ["wa", "bwe"], ["ya", "mbi"], ["N", "d"], ["m", "si"], ["saada", "te"], ["ji", "ra."], ["bala", "a"], ["ton", "e"], ["vi", "l"], ["pon", "du"], ["tele", "ma"], ["nu", "uri"], ["o", "\u0257o"], ["taja", "aji"], ["da", "k"], ["s", "tra"], ["aga", "."], ["-", "ni"], ["du", "ka"], ["ke", "te"], ["ho", "s"], ["e", "motoka"], ["rugb", "y"], ["\u025b", ","], ["beet", "tees."], ["ne", "che"], ["moin", "do"], ["en", "sa"], ["S", "ha"], ["I", "na"], ["yi", "wu"], ["ele", "k"], ["\u0256", "\u028b"], ["\u1265\u12d9\u1213", "\u1275"], ["bon", "ero"], ["naf", "ti"], ["bango", "mba"], ["pe", "te"], ["ak", "pa"], ["du", "ba"], ["lin", "go"], ["aka", "."], ["a", "dhi"], ["i", "jo"], ["go", "la"], ["tsa", "ri"], ["es", "te"], ["m", "bani"], ["ala", "mu"], ["isi", "i"], ["po", "."], ["w", "\u00f9"], ["jir", "gi"], ["lan", "go"], ["la", "lo"], ["tu", "mu"], ["2", "1"], ["ob", "wen"], ["ka", "ran"], ["e", "j"], ["ka", "rin"], ["to", "olo"], ["ke", "o"], ["z", "ze"], ["so", "mba"], ["ko", "di"], ["na", "\u0301"], ["i", "\u0301"], ["t\u1eb9\u0301", "l\u1eb9\u0300"], ["\u00e0", "fi"], ["b", "\u1eb9"], ["\u00ec", "b\u00f2"], ["k\u00f2\u00f3", "k\u00f2"], ["\u00e0p\u1eb9", "r\u1eb9"], ["b\u00e0", "\u00e1"], ["\u1eb9", "k\u00f9n"], ["\u00ec", "r\u00ed"], ["3", "."], ["\u00ecn", "rin"], ["\u00f9n", "rin"], ["S", "chuma"], ["\u00f2", "r\u00f9n"], ["po", "inti"], ["kar", "un"], ["bur", "g"], ["ni", "gba"], ["Sp", "rin"], ["Sprin", "gbo"], ["M", "ol"], ["y\u00ec", "ny"], ["y\u00ecny", "\u00edn"], ["s\u00ed", "n\u00fa"], ["a", "jo"], ["V", "ida"], ["Vida", "l"], ["Ste", "phen"], ["gb", "\u1ecdn"], ["En", "ce"], ["Ence", "la"], ["du", "s"], ["nu", "\u0301"], ["K", "ong"], ["\u1e63", "\u00e9\u0323"], ["\u00ecl", "\u00ec"], ["l\u00e8", "\u0323"], ["ba", "\u0301"], ["8", "00"], ["\u00ec", "l\u00e0"], ["pa", "p\u1ecd\u0300"], ["\u00ec", "d\u00ecb\u00f2"], ["j", "\u00e9\u0323"], ["\u1eb9\u0300", "k\u1ecd\u0301"], ["g", "\u1ecd\u0301"], ["Ko", "re"], ["s\u1ecd\u0300", "r\u1ecd\u0300"], ["H", "ali"], ["x", ","], ["or", "k"], ["m", "\u00e1\u00e0"], ["II", "."], ["\u00f2", "f\u00fa"], ["\u00f2f\u00fa", "ru"], ["in", "f"], ["\u00ec", "h"], ["Col", "bert"], ["19", "95"], ["\u00e0", "\u1e63\u00e0"], ["Do", "min"], ["e", "w\u00e9"], ["M", "it"], ["le", "y"], ["O", "ve"], ["Ove", "chkin"], ["T", "ok"], ["A", "ng"], ["201", "1."], ["che", "v"], ["K", "ri"], ["ffe", "r"], ["mna", "s"], ["Ge", "or"], ["Geor", "ge"], ["San", "ta"], ["Fal", "luja"], ["Falluja", "h"], ["4", ","], ["Da", "vid"], ["P", "ri"], ["(", "F"], ["Spor", "ting"], ["S", "hoo"], ["Shoo", "ters"], ["Lak", "kha"], ["Ba", "y"], ["L", "A"], ["H", "am"], ["su", ","], ["Proven", "zano"], ["F", "ron"], ["Fron", "tiere"], ["C", "on"], ["Hu", "h"], ["Huh", "ne"], ["L", "os"], ["Sch", "engen"], ["3", "4"], ["ahu", ","], ["Ari", "as"], ["s", "pe"], ["I", "D"], ["-19", "."], ["Re", "id"], ["2", "000"], ["ra", "dio"], ["or", "don"], ["ssi", "on"], ["Dani", "elle"], ["K", "hande"], ["Dama", "dian"], ["M", "on"], ["K", "ir"], ["Kir", "ch"], ["Bu", "en"], ["Buen", "os"], ["A", "ire"], ["Ja", "mes"], ["Stan", "for"], ["Stanfor", "d"], ["2", "8"], ["Do", "mini"], ["ati", "a"], ["8", "8"], ["mi", "sali"], ["daban", "-"], ["daban-", "daban"], ["ku", "ll"], ["kull", "un"], ["gudana", "r"], ["ji", "kin"], ["fus", "kan"], ["abubu", "wan"], ["ti", "keti"], ["zan", "ga-"], ["gida", "jen"], ["ma", "yar"], ["ka", "-"], ["ta", "shar"], ["sakama", "kon"], ["ai", "ka"], ["j", "eni"], ["Ja", "mi"], ["du", "sar"], ["sar", "rafa"], ["Te", "kun"], ["Ma", "sana"], ["al", "'"], ["tafiye-", "tafiye"], ["Bi", "g"], ["jum", "la"], ["nga", "ghar\u1ecb"], ["n'i", "hu"], ["kp", "\u1ecdr\u1ecd"], ["\u1ecdw\u1ee5", "wa"], ["ma", "t\u1ee5"], ["ab\u1ee5\u1ecd", ","], ["on", "yon"], ["na-", "ama"], ["u", "che"], ["ab", "\u1ecba"], ["n'", "obodo"], ["bi", "doro"], ["\u1ecd", "ha"], ["otu", "tu"], ["nle", "re"], ["iche", ","], ["je", "m"], ["as", "\u1ee5s\u1ee5"], ["aba", "l\u1ecb"], ["Ame", "r\u1ecbka"], ["go", "siri"], ["D", "\u1ecb"], ["n'", "\u1ee5z\u1ecd"], ["mg", "banwe"], ["A", "gha"], ["k", "lia"], ["wan", "gwa"], ["wana", "o"], ["ku", "zu"], ["u", "gonjwa"], ["wali", "kuwa"], ["fanyi", "ka"], ["pi", "gaji"], ["Pi", "a"], ["u", "chungu"], ["mali", "za"], ["ka", "zini"], ["ri", "poti"], ["fu", "zi"], ["fan", "ywa"], ["jo", "to"], ["we", "ka"], ["pati", "kana"], ["vi", "te"], ["pu", "si"], ["ing", "ana"], ["mo", "beko"], ["ba", "kanga"], ["malamu", ","], ["M", "pona"], ["loba", "ka"], ["ako", "ki"], ["kome", "ma"], ["mbo", "ki"], ["os", "engeli"], ["e", "sanga"], ["bo", "moi"], ["kole", "kisa"], ["bazo", "sala"], ["nyonso", ","], ["bong", "wana"], ["bo", "ongo"], ["kisa", "ki"], ["ma", "mbuka"], ["bi", "seera"], ["ka", "laka"], ["ko", "lwa"], ["bi", "fo"], ["ebi", "mu"], ["l", "y\u2019"], ["ta", "aga"], ["endeke", "ro"], ["B", "uli"], ["m", "yaka"], ["ebi", "singa"], ["ebi", "tundu"], ["og", "w\u2019"], ["\u07df\u07ca", "\u07db\u07cb\u07eb"], ["\u07e2", "\u07ce"], ["\u07e1\u07ca", "\u07d6\u07cc\u07f0"], ["\u07d3\u07cf", "\u07df\u07cf\u07f2"], ["\u07db", "\u07d0\u07f2\u07eb"], ["\u07e1\u07ce\u07e3", "\u07ce\u07f2"], ["\u07db", "\u07d3\u07ca\u07ec"], ["\u07d5\u07ca", "\u07f0"], ["\u07d5", "\u07df\u07ca"], ["\u07dd", "\u07d1"], ["\u07ca", "\u07d9\u07cc"], ["\u07de\u07ca\u07ec", "\u07df\u07cc"], ["\u07db\u07ce\u07f2", "\u07de\u07ce\u07f2"], ["\u07de\u07f5", "\u07cf"], ["\u07de\u07ce", "\u07d8\u07cd"], ["\u07e1", "\u07ce\u07ec"], ["\u07df\u07d0\u07f2", "\u07d5\u07ca"], ["\u07de\u07ca\u07ec", "\u07dd\u07cf\u07eb"], ["\u07d8\u07d0\u07ec", "\u07e6\u07ca"], ["\u07dd\u07cf", "\u07e6\u07cc\u07ec"], ["\u07d3", "\u07e3\u07ca\u07ec"], ["\u07e6", "\u07f4\u07cf\u07ec"], ["\u07d2", "\u07e1\u07ca"], ["\u07e3\u07f4\u07ca\u07ec", "\u07df\u07ce\u07ec"], ["\u07e4\u07ca", "\u07df\u07cc"], ["\u07d6\u07cf", "\u07e3\u07ca"], ["\u07e3", "\u07ce\u07f2"], ["\u07d3", "\u07d8\u07f4\u07ca\u07ec"], ["\u07e5\u07d9", "\u07ce"], ["\u07d8\u07d0", "\u07d3\u07cd\u07f2\u07ec"], ["\u07d6", "\u07d0\u07f2\u07eb"], ["\u07d6", "\u07df\u07ce"], ["\u07de\u07ce\u07ec", "\u07db\u07ca\u07f2\u07ec"], ["\u07d3", "\u07ca\u07f2\u07ec"], ["\u07d5", "\u07cd\u07ec"], ["\u07d6\u07ed", "\u07ca"], ["\u07dc", "\u07df\u07d0"], ["\u07d4", "\u07cc"], ["\u07d4", "\u07cf"], ["\u07dd", "\u07cf\u07f2"], ["\u07de\u07cf", "\u07d5\u07cc\u07ef"], ["\u07de", "\u07df\u07ca\u07ec"], ["\u07ef", "\u07d8\u07d0"], ["\u07db\u07d1\u07d5", "\u07d9\u07ca"], ["\u07de\u07ca\u07d5", "\u07d9\u07cd\u07ec"], ["\u07de\u07ca\u07d5\u07d9\u07cd\u07ec", "\u07d5\u07cd\u07eb"], ["\u07d5\u07df\u07cb\u07ec", "\u07d3\u07d0"], ["\u07e7", "\u07ca\u07eb"], ["\u07d6", "\u07db\u07d0"], ["\u07dd\u07ce", "\u07df\u07cb\u07f2"], ["\u07d5\u07cf", "\u07f0"], ["\u07d5", "\u07d1"], ["\u07d9", "\u07cd\u07f2"], ["\u07db\u07cf", "\u07f2"], ["\u07d8", "\u07cc\u07f2\u07ec"], ["\u07d5\u07ca\u07ef\u07e1", "\u07e2\u07ca"], ["\u07dc\u07cb\u07ec", "\u07df\u07ce\u07f2\u07ec"], ["\u07e2\u07ca", "\u07dd\u07cf\u07e6\u07cc\u07eb"], ["\u07d6\u07cc", "\u07d8\u07ca"], ["\u07d8\u07ce", "\u07f1"], ["\u07d8\u07cf\u07f2\u07ec\u07d6\u07df\u07ce\u07ec", "\u07e1\u07ca\u07ec"], ["\u07cf", "\u07df\u07d0\u07f2"], ["\u07cc", "\u07d9"], ["\u07db\u07cb", "\u07d2\u07de\u07cf\u07df"], ["\u07e4\u07ca", "\u07e1\u07ca\u07f2"], ["\u07e4\u07ca\u07e1\u07ca\u07f2", "\u07d5\u07cd\u07eb"], ["\u07e1\u07ca", "\u07e6\u07cb\u07d9\u07cb\u07f2"], ["\u07ca", "\u07df\u07d1"], ["\u07d6\u07ca\u07f2\u07ec", "\u07d6"], ["\u07d8\u07cd\u07f2", "\u07d2\u07d6\u07d8\u07cd"], ["\u07d5", "\u07d9\u07ca"], ["\u07e5\u07ca", "\u07ef"], ["\u07e3\u07ca", "\u07df\u07cc\u07ec"], ["\u07e3\u07ca\u07df\u07cc\u07ec", "\u07e1\u07ce\u07f2\u07eb"], ["\u07df\u07ca", "\u07d8\u07cd\u07ec\u07e3\u07cd\u07f2"], ["\u07ca\u07e1\u07cb\u07d9\u07cc", "\u07de\u07cc\u07ec"], ["\u07db\u07cc", "\u07e6\u07ca\u07eb"], ["p", "lan"], ["w\u00e1", "r\u00ed"], ["t", "\u1eb9"], ["bo", "."], ["kwa", "doro"], ["ku", "me"], ["gu", "a"], ["m", "to"], ["bon", "i"], ["\u1219", "\u1209"], ["\u12a0", "\u1235"], ["\u1260", "\u1218"], ["\u1235", "\u120d"], ["\u1271", "\u1295"], ["p", "ri"], ["en", "d"], ["u", "v"], ["ta", "ti"], ["pa", "m"], ["kome", "la"], ["ta", "'e"], ["ba", "ree"], ["ki", "yubo"], ["\u0254", "y\u025b"], ["ata", "ade"], ["\u0256", "\u0269"], ["u", "a"], ["re", "hw\u025b"], ["at", "wa"], ["bwe", "."], ["too", "re"], ["\u12eb", "\u120b\u1278\u12cd"], ["em", "yenda"], ["eri", "kwiragura"], ["ya", "an"], ["ro", "tra"], ["o", "do"], ["\u1208", "\u12a9\u121d"], ["\u12f3", "\u122b"], ["\u12d3", "\u1275"], ["\u1308", "\u122d"], ["to", "moni"], ["\u130b", "\u122d"], ["mi", "pe"], ["fa", "ha"], ["ro", "a"], ["\u1290", "\u1245"], ["a", "fo"], ["ni", "san"], ["isa", "an"], ["\u12eb", "\u1209"], ["\u12e8", "\u12a0"], ["hy\u025b", "n"], ["ma", "\u014b"], ["ma", "re"], ["ge", "."], ["laki", "si"], ["mo", "."], ["ho", "re"], ["le", "so"], ["mab", "bali"], ["aya", "mbadde"], ["kare", "tta"], ["bee", "?"], ["evi", "dze"], ["nd", "en"], ["\u0292i", "\u025b"], ["baa", "tto"], ["gadzi", "rwa"], ["is", "wa"], ["ba", "re"], ["\u014b", "."], ["wag", "y\u025b"], ["pa", "pa"], ["ka", "metsi"], ["sii", "sanno"], ["yin", "gi"], ["mi", "khi"], ["cii", "shsha"], ["kura", "ti"], ["ban", "e"], ["a", "tye"], ["G", "aba"], ["fu", "u"], ["a", "ddaa"], ["ma", "lla"], ["Ma", "ame"], ["s\u025b", "n"], ["rin", "hi"], ["ba", "gi"], ["sa", "yi"], ["ama", "yumba"], ["\u12a5", "\u121d"], ["\u1213", "\u1295\u1272"], ["\u12a3", "\u120b"], ["li", "mu"], ["baba", "l"], ["ari", "yo"], ["ddu", "gavu"], ["ebi", "zimbe"], ["ye", "wa"], ["h", "ye"], ["kpl\u0254", "\u0303"], ["won", "\u0254"], ["omu", "bisi"], ["n'", "emi"], ["u", "mo"], ["yin", "ni"], ["kun", "ni"], ["on", "na"], ["ya", "ta"], ["En", "te"], ["e", "gya"], ["ten", "ni"], ["i", "vi"], ["\u130d", "\u1295"], ["mud", "horob"], ["\u12f0", "\u121b"], ["\u12dd", "\u122d"], ["nyaa", "\u014ba"], ["an", "ka"], ["tani", "i"], ["\u0254", "l\u0254"], ["mi", "c"], ["Pa", "\u0263a"], ["ko", "ri"], ["aga", "r"], ["qaba", "."], ["pi", "l"], ["oku", "geza"], ["\u121d\u1295", "\u1273\u12ed"], ["labo", "lo"], ["bo", "lli"], ["ba", "sa"], ["zo", ","], ["de", "bbo"], ["\u1240\u1208", "\u121b"], ["sanno", "ri"], ["ja", "wa"], ["mbi", "le"], ["nin", "deeba"], ["obu", "li"], ["pen", "ti"], ["ban", "zete"], ["n", "zete"], ["g", "y'"], ["w\u0254", "de"], ["\u1230\u121b\u12eb\u12ca", "\u1293"], ["\u1235\u1270", "\u1300\u122d\u1263"], ["\u12c8", "\u122d"], ["dan", "e"], ["da", "da"], ["\u0190", "m\u025b"], ["\u025b", "k\u0254"], ["\u025bk\u0254", "t\u0254"], ["tsi", "tsi"], ["O", "t"], ["tu", "ku"], ["\u014b", "maa"], ["as", "\u025b"], ["nga", "ro"], ["re", "ta"], ["nimi", "ro"], ["sh\u025b", "\u014ba"], ["ko", "na"], ["gu", "bedo"], ["wo", "de"], ["K", "om"], ["si", "r"], ["ree", "ffa"], ["wa", "ko"], ["ye", "la"], ["si", "ti"], ["aya", "va"], ["ku", "ona"], ["tsi", "'"], ["je", ","], ["om", "wi"], ["U", "mu"], ["pa", "le"], ["gu", "i"], ["i", "wi"], ["en", "to"], ["ka", "t"], ["\u0292", "ee"], ["tin", "no"], ["\u025bfu", "\u025b"], ["ba", "ali"], ["ge", "le"], ["\u12ed", "\u1228"], ["saa", "we"], ["in", "shura"], ["mo", "tane"], ["o", "se"], ["M", "mari"], ["Mmari", "ma"], ["tan", "na"], ["re", "ra"], ["u", "ur"], ["\u1218\u1295", "\u1308"], ["bi", "o"], ["\u1295", "\u1325"], ["mu", "ku"], ["V", "ita"], ["maxaa", "ffa"], ["ik", "kanna"], ["\u12f0\u130d", "\u121e"], ["maa", "dhi"], ["atu", "re"], ["ek", "kubo"], ["hi", "mi"], ["omu", "li"], ["ek", "y'"], ["ez'", "enjawulo"], ["bu", "no"], ["b", "'"], ["b", "he"], ["ku", "lya"], ["l", "w'"], ["do", "a"], ["E", "ra"], ["a", "ban"], ["he", "ddu"], ["l", "\u0269"], ["\u12a5", "\u12e8"], ["m", "win"], ["\u12f0", "\u122b"], ["oku", "dda"], ["ra", "un"], ["mun", "du"], ["ye", "vu"], ["yon", "gera"], ["son", "o"], ["ko", "re"], ["tsi", "re"], ["ye", "e"], ["de", "be"], ["g", "ini"], ["yo", "to"], ["\u1325", "\u1245"], ["Ma", "a"], ["mo", "otu"], ["\u12a5\u1295", "\u12f3"], ["E", "ze"], ["da", "ka"], ["k'", "\u0254"], ["so", "sa"], ["ta", "ta"], ["ba", "langi"], ["ma", "si"], ["saga", "lete"], ["e", "gbe"], ["men", "o"], ["ru", "te"], ["b", "ban"], ["fan", "o"], ["om", "wen"], ["ka", "an"], ["ga", "ki"], ["fu", "r"], ["ma", "du"], ["tan", "ana"], ["mba", "ra"], ["kpe", "kpe"], ["fe", "ere"], ["B", "ol"], ["ku", "di"], ["su", "l"], ["ko", "lia"], ["ebi", "faananyi"], ["ha", "\u0257a"], ["ke", "wa"], ["C", "h"], ["d", "yo"], ["tu", "ta"], ["A", "ta"], ["sa", "bi"], ["nyi", "g"], ["'", "in"], ["mi", "."], ["g", ")"], ["zi", "o"], ["fu", "uka"], ["t", "tun"], ["M", "ba"], ["be", "i"], ["yan", "si."], ["mi", "rwa"], ["E", "byo"], ["en", "songa"], ["8", ","], ["ba", "ha"], ["na\u0301", "a\u0300"], ["\u0300", ","], ["Turke", "y"], ["I", "S"], ["-", "\u00e8d\u00e8"], ["\u00ec\u1e63", "\u1eb9\u0300"], ["d", "\u1eb9\u0300"], ["w\u1ecd\u0301", "p\u1ecd\u0300"], ["\u1e63", "\u00ec"], ["\u00ecgb\u00ec", "m\u1ecd\u0300"], ["AD", "D"], ["\u1ecc\u0300", "p\u1ecd\u0300"], ["t", "han"], ["d\u00ed", "\u1eb9\u0300"], ["k", "\u1eb9\u0301"], ["m\u1eb9\u0301", "f\u00e0"], ["Noo", "sa"], ["p\u00e1", "p\u00e1"], ["Schuma", "cher"], ["\u00f2", "w\u00f2"], ["g", "\u00e1"], ["\u00ec", "s"], ["\u00e0", "t\u00fan"], ["m\u00ed", "t\u00e0"], ["E", "uro"], ["b\u1ecd\u0301", "\u1ecd\u0300"], ["k\u00e1\u00e0", "kiri"], ["J", "r."], ["f\u00e1", "w\u1ecdn"], ["l\u1eb9\u0300", "."], ["\u00ec", "tu"], ["\u00ec", "p\u00e0"], ["fu", "\u0301n"], ["d\u00ed", "\u00f2"], ["Simpson", "s"], ["wo", "\u0300"], ["si", "\u0300"], ["Lay", "ton"], ["ni\u0301", "nu\u0301"], ["r\u00f2", "y\u00ecn"], ["Argen", "tina"], ["19", ","], ["\u00e0\u00ec", "s\u00e0n"], ["Car", "ter"], ["wa", "\u0301"], ["s", "\u1ecd\u0301"], ["c", "a,"], ["Tom", "my"], [".", "\u201d"], ["l\u00e1\u00e0", "rin"], ["k\u00f3", "pa"], ["\u00e8", "\u00e8y\u00e0n"], ["S", "co"], ["o", "un"], ["d\u00ed", "je"], ["a", "ini"], ["r\u1ecd", "r\u00f9n"], ["\u1ecd", "k\u1ecd"], ["S", "lalo"], ["\u00f2f\u00faru", "f\u00fa"], ["n\u00ed", "bi"], ["Ge", "ospiza"], ["st", "ro"], ["(", "16"], ["ato", "m"], ["s", "la"], ["C", "he"], ["k\u00f9", "s\u00f9"], ["mnas", "tic"], ["mnastic", "s"], ["Bar", "celo"], ["Barcelo", "na"], ["P", "ragu"], ["Pragu", "e"], ["E", "cu"], ["Ecu", "ado"], ["Japan", "."], ["as", "\u1ecd"], ["De", "von"], ["Devon", "port"], ["Ira", "q"], ["Berlin", ","], ["Cana", "da,"], ["Me", "di"], ["San", "s"], ["Re", "publi"], ["Ser", "enge"], ["Olympic", "s"], ["se", "y"], ["J", "on"], ["gon", ","], ["Ne", "va"], ["e", "ge"], ["ali", "on"], ["C", "OV"], ["COV", "ID"], ["COVID", "-19."], ["I", "r"], ["C", "or"], ["G", "h"], ["Gh", "z"], ["Al", "l"], ["G", "ordon"], ["pho", "ton"], ["Ste", "ar"], ["Stear", "n"], ["st", "ani"], ["Khande", "lwa"], ["Khandelwa", "l"], ["K", "ori"], ["K", "at"], ["Kirch", "ner"], ["K", "ari"], ["Go", "re"], ["ta", "urar"], ["taurar", "on"], ["ada", "m"], ["dabbo", "bi"], ["Ko", "da"], ["nau", "yin"], ["kan", "an"], ["duniya", "."], ["kwa", "yar"], ["sau", "rin"], ["\u0199an", "\u0199ara"], ["sara", "rin"], ["wa", "dannan"], ["za", "ben"], ["3", "00"], ["kwa", "kwa"], ["wasan", "ni"], ["ni", "sha"], ["kun", "an"], ["11", ":"], ["ga-", "zir"], ["sojo", "jin"], ["ya", "kin"], ["kar", "shen"], ["ci", "won"], ["\u0199asa", "she"], ["kara", "r"], ["'", "yan"], ["ko", "yo"], ["sana", "r"], ["Wa", "su"], ["gir", "man"], ["ka", "lin"], ["ha", "\u0257"], ["amin", "ce"], ["mahi", "mman"], ["can", "za"], ["mo", "min"], ["bi", "jin"], ["eru", "sale"], ["ku", "ki"], ["tafi", "yar"], ["ci", "gaba"], ["Jamu", "s"], ["abin", "ci"], ["ha", "\u0257in"], ["ya", "wa,"], ["do", "kar"], ["sha", "ra"], ["ad", "un"], ["ti", "kiti"], ["gali", "bi"], ["a", "zu"], ["6", "00"], ["W", "ata"], ["ma", "gana"], ["ma", "wa"], ["dau", "ki"], ["cu", "ta"], ["H", "ong"], ["tsi", "bira"], ["Sch", "nei"], ["Schnei", "der"], ["ya", "ki"], ["Da", "ve"], ["Af", "r\u1ecbka"], ["n'", "ak\u1ee5k\u1ee5"], ["\u1ee4", "f\u1ecdd\u1ee5"], ["n\u2019", "otu"], ["Ag", "banyegh\u1ecb"], ["ch\u1ecd", "p\u1ee5tara"], ["kwu", "o"], ["\u1ecb", "kw\u1ee5"], ["ezi", "e"], ["b", "\u1ecb"], ["o", "chie"], ["d\u1ecb", ","], ["n", "hazi"], ["asa", "t\u1ecd"], ["mme", "t\u1ee5ta"], ["k", "were"], ["Maha", "dum"], ["n\u1ecd", "r\u1ecd"], ["kpa", "kpan"], ["na-", "ah\u1ee5"], ["obu", "la"], ["n\u2019", "e"], ["ak", "wu"], ["ngw\u1ee5", "cha"], ["ome", "nala"], ["Se", "pte"], ["intan", "eti"], ["n\u2019", "aba"], ["U", "turu"], ["ko", "mp"], ["komp", "yu"], ["iki", "wa"], ["Ki", "la"], ["maa", "lum"], ["jumu", "isha"], ["Ku", "sini"], ["ku", "ling"], ["vi", "faa"], ["duni", "a"], ["mi", "wa"], ["mi", "chezo"], ["Ba", "ada"], ["m", "wenye"], ["ku", "bali"], ["enge", "le"], ["anda", "mano"], ["kata", "ba"], ["ha", "kuna"], ["U", "ingereza"], ["ku", "kaa"], ["tengene", "zwa"], ["kuru", "di"], ["wa", "talii"], ["kiri", "a"], ["dha", "ria"], ["pele", "kea"], ["un", "do"], ["sala", "ma"], ["che", "zaji"], ["zungu", "ka"], ["u", "ki"], ["el", "fu"], ["mili", "oni"], ["hali", "si"], ["visi", "wa"], ["uta", "maduni"], ["kuto", "kana"], ["gan", "yi"], ["B", "anda"], ["mosusu", ","], ["koye", "kola"], ["ko", "kanisa"], ["bo", "pusi"], ["mpo", "sa"], ["li", "solo"], ["ko", "bongola"], ["fil", "me"], ["minis", "tre"], ["tin", "da"], ["esale", "maki"], ["mala", "mu."], ["enga", "ki"], ["misa", "ki"], ["ng", "onga"], ["fe", "de"], ["sa", "teli"], ["nyonso", "."], ["Tur", "qu"], ["sale", "ma"], ["ebongi", "seli"], ["bongi", "seli"], ["ba", "mili"], ["mobi", "mba,"], ["onga", "ki"], ["sobo", "zesa"], ["t", "wali"], ["yon", "na."], ["ga", "tta"], ["oku", "ge"], ["O", "kula"], ["manyi", "dwa"], ["mu", "sanvu"], ["obu", "lu"], ["kyu", "usa"], ["zan", "ya"], ["giri", "maani"], ["bu", "kiika"], ["oku", "sa"], ["tekinolo", "giya"], ["\u07e2\u07ce", "\u07e1\u07cd"], ["\u07df\u07ca\u07f2", "\u07de\u07e3\u07cd"], ["\u07d3", "\u07d0\u07ec"], ["\u07dc\u07cb\u07d9\u07cb\u07f2\u07dc\u07cb\u07d9\u07cb\u07f2", "\u07e7\u07ca"], ["\u07d3\u07cf\u07f2\u07ec", "\u07d3\u07ca"], ["\u07d8\u07ce\u07f0", "-"], ["\u07de\u07ca", "\u07dd\u07cf"], ["\u07d3\u07df\u07cf\u07eb", "\u07f8"], ["\u07e4\u07ca\u07f2", "\u07ef"], ["\u07e5", "\u07df\u07cf"], ["\u07dc", "\u07d9\u07ca"], ["\u07de\u07cf\u07f2", "\u07de\u07cf"], ["\u07e6", "\u07df\u07cd"], ["\u07dd", "\u07ca\u07eb"], ["\u07dd\u07ca\u07ec", "\u07d8\u07cc"], ["\u07d3\u07cd\u07ec", "\u07d9\u07cd\u07f2\u07ec"], ["\u07cc", "\u07db\u07d1"], ["\u07d5\u07ca\u07ec\u07e1\u07cc\u07f2\u07ec", "\u07e3\u07cd\u07f2"], ["\u07de\u07df\u07ca", "\u07de\u07df\u07ca"], ["\u07db\u07cf", "\u07f0"], ["\u07de\u07d9", "\u07cd"], ["\u07e5", "\u07df\u07f4\u07ca\u07ec"], ["\u07dd\u07ca\u07f2\u07ec", "\u07de\u07ca"], ["\u07d6", "\u07d0\u07ec"], ["\u07e5", "\u07d0\u07d9"], ["\u07d4", "\u07cb"], ["\u07d3\u07d0", "\u07e3\u07cd\u07f2\u07eb"], ["\u07db\u07ca\u07f2\u07e1\u07ca-", "\u07db\u07cc\u07df\u07ca\u07eb"], ["\u07db\u07ca\u07f2\u07de\u07ca", "\u07e2\u07d0\u07f2\u07ef\u07e6\u07ca"], ["\u07cb", "\u07d9\u07d0"], ["\u07d6\u07cc\u07ec\u07e6\u07ca\u07ec", "\u07d6\u07df\u07ce\u07ec"], ["\u07d5\u07e3\u07cd\u07ec\u07e3\u07cd\u07ec", "\u07df\u07cc"], ["\u07db\u07ca\u07f2", "\u07d8\u07d0"], ["\u07d3\u07ce", "\u07d9"], ["\u07d6\u07e1\u07ca", "\u07e3\u07ca"], ["\u07d3", "\u07d9\u07cc"], ["\u07e1\u07ca", "\u07db\u07d0\u07ec\u07d8\u07d0\u07f2\u07ec"], ["\u07df\u07ca", "\u07d5\u07ca\u07ef"], ["\u07de\u07e3", "\u07d0\u07ec"], ["\u07dd\u07ca", "\u07ef\u07d8\u07d0"], ["\u07d6", "\u07df\u07cf"], ["\u07d8\u07ca", "\u07f0"], ["\u07dc", "\u07d8\u07cb"], ["\u07d3\u07d8\u07cd", "\u07de\u07cd\u07ed"], ["\u07de\u07cd\u07ec", "\u07df\u07cd"], ["\u07de\u07ce\u07f2\u07ec", "\u07d5\u07ca\u07ee"], ["\u07d3\u07cc\u07ec\u07df\u07ca\u07ec", "\u07e3\u07cd\u07f2\u07eb"], ["\u07e3\u07d0\u07f0", "\u07e6\u07ca\u07ec"], ["\u07dc", "\u07cf"], ["\u07d3", "\u07d0\u07f0"], ["\u07d8\u07cd\u07f2", "\u07f0"], ["\u07d7\u07cb", "\u07e2\u07ca\u07df\u07cc"], ["\u07d9", "\u07cb\u07f2\u07ec"], ["\u07de\u07ca", "\u07d9\u07cf\u07eb"], ["\u07df\u07cf", "\u07f2\u07ec"], ["\u07e1\u07ca\u07f2\u07ec", "\u07db\u07ca\u07ec"], ["\u07d3\u07cd\u07f2\u07ec", "\u07d2\u07d8\u07d0"], ["\u07dd\u07ce\u07ec", "\u07d9\u07ce\u07f2\u07ec"], ["\u07dd\u07ce\u07ec\u07d9\u07ce\u07f2\u07ec", "\u07de\u07ce\u07ec"], ["\u07e1\u07ca\u07dd\u07cd", "\u07e3\u07cd\u07f2\u07eb"], ["\u07de\u07d0\u07ec", "\u07d9\u07d0\u07f2\u07ec"], ["\u07dc\u07ed", "\u07cf"], ["\u07de\u07cf\u07eb", ":"], ["\u07de\u07ce\u07f2\u07ec\u07e0\u07ca\u07ec", "\u07db\u07cc\u07f0"], ["\u07db", "\u07cd\u07f2\u07eb"], ["\u07dc", "\u07d9\u07cb"], ["\u07ca", "\u07e1\u07d9\u07cc"], ["\u07d6", "\u07cb"], ["\u07d3\u07df\u07cf", "\u07e1\u07ca"], ["\u07df\u07ca", "\u07db"], ["\u07dd", "\u07d0\u07ec"], ["\u07e5\u07d9", "\u07cd\u07ec"], ["\u07de\u07ce\u07df\u07ce\u07f2", "\u07de\u07ce\u07df\u07ce\u07f2"], ["\u07df\u07cb\u07ec", "."], ["\u07d3\u07ca", "\u07de\u07cd\u07ed"], ["\u07d8\u07ca\u07f2\u07ec\u07e0\u07ca\u07d5\u07cd\u07f0", "\u07e3\u07cd\u07f2"], ["\u07de\u07df\u07cf\u07de\u07d5\u07cf", "\u07e6\u07ca"], ["\u07dc", "\u07cc\u07ec"], ["\u07e3\u07cc", "\u07d4\u07d0\u07f2\u07eb"], ["\u07d5\u07ca", "\u07dd"], ["\u07dd\u07cd", "\u07d8\u07cd\u07f2"], ["\u07ca", "\u07df\u07cc"], ["\u07e3\u07cd", "\u07e3\u07cd"], ["\u07de", "\u07df\u07cd"], ["\u07e2\u07d0\u07f2\u07f0", "\u07e1\u07ca\u07ec"], ["\u07d8\u07ca", "\u07e1\u07cc\u07ec"], ["\u07e5\u07ce", "\u07e6\u07ca\u07f2"], ["\u07cf", "\u07f1"], ["ta", "ke"], ["ti", "ve"], ["al", "l"], ["p", "s"], ["ve", "lo"], ["r", "ti"], ["d\u00edn", "l\u1ecd\u0301"], ["d\u00e1", "j\u00fa"], ["d\u00e0", "gb\u00e0"], ["\u00e0", "gb\u00e0"], ["sa", "fi"], ["lamba", "r"], ["\u0199wa", "yoyin"], ["\u1ecb", "na"], ["\u1ecdg\u1ee5", "g\u1ee5"], ["wi", "li"], ["mi", "kono"], ["asili", "mia"], ["\u1273", "\u127d"], ["\u1206", "\u1291"], ["\u1218", "\u130b"], ["\u12f5", "\u122d"], ["i", "te"], ["f", "fi"], ["de", "s"], ["u", "te"], ["ro", "\u0253e"], ["ji", "re"], ["man", "ni"], ["at", "\u025b"], ["n", "wura"], ["p", "le"], ["i", "ts"], ["gba", "ta"], ["to", "y"], ["zava", "tra"], ["maa", "ddi"], ["beet", "too"], ["s", "ra"], ["l", "ine"], ["bu", "zi"], ["fo", "tsi"], ["\u12ab", "\u1273"], ["\u12f5", "\u1228"], ["\u12e8\u1270", "\u1208\u12eb"], ["m-", "pi"], ["saka", "fo"], ["ira", "y,"], ["az", "y"], ["Madaga", "sika"], ["su", "ki"], ["lap", "top"], ["A", "b"], ["\u1295", "\u1293"], ["zi", "kpu"], ["ts", "\u0254"], ["tra", "ka"], ["\u1218\u12f0", "\u1290\u1245"], ["\u130d\u12f5", "\u130d\u12f3"], ["iza", "o"], ["bba", "m"], ["ja", "a"], ["ene", "na"], ["e", "inhuma"], ["\u1270\u1240\u121d", "\u1327\u120d\u1362"], ["mana", "o"], ["jedha", "mu"], ["ki", "in"], ["ivli", "ts\u025b"], ["k\u025b", "se\u025b"], ["an", "'"], ["poli", "si"], ["Nin", "deeba"], ["khun", "dulo"], ["to", "onni"], ["barbaa", "chi"], ["si", "le"], ["b", "ro"], ["\u0257i", "\u0257i"], ["mai", "."], ["nda", "ba"], ["Su", "u"], ["b", "banga"], ["n", "yan"], ["ga", "ta"], ["yaa", "te"], ["o", "fo"], ["mbo", "."], ["ne", "ruvara"], ["z", "va"], ["am", "bile"], ["an", "na"], ["biri", "na"], ["ba", "mu"], ["\u1236", "\u127d"], ["kh", "ono"], ["kwari", "re"], ["mikhi", "le"], ["oo", "se"], ["maa", "ta"], ["ba", "an"], ["kurati", "dza"], ["ki", "ma"], ["la", "ke"], ["aa", "daa"], ["naan", "noo"], ["k", "ku"], ["k\u0254", "n"], ["an", "-"], ["hu", "mba"], ["ire", ","], ["ru", "."], ["fa", "uni"], ["b\u028b", "a"], ["en", "so"], ["won", "ya"], ["Ame", "wo"], ["kp\u0254", "m"], ["g", "\u025b"], ["s", "r\u0254"], ["ju", "ki"], ["bo", "ondii"], ["wo", "mu"], ["rosiisa", "te"], ["kin", "ni"], ["ma", "ju"], ["N", "am"], ["N", "E"], ["qul", "qu"], ["do", "me"], ["ge", "den"], ["wan", "no"], ["kaa", "'"], ["mala", "c"], ["bu", "nga"], ["baa", "ji"], ["j", "wire"], ["o", "ma"], ["\u120e", "\u1275"], ["mutwe", "la"], ["et\u0254", "\u0303"], ["\u028b", "i"], ["\u1260\u12a9", "\u120d"], ["\u12d8", "\u1295"], ["\u12dd", "\u12be"], ["\u12a8\u1270", "\u121b"], ["\u120d", "\u1275"], ["\u12a5", "\u12ee"], ["wo", "ame"], ["af\u0254", "kpa"], ["lay", "tta"], ["\u12f0\u121b", "\u1245"], ["\u12a3\u120e", "\u1362"], ["\u121b", "\u12a5"], ["leelli", "shshanno"], ["qabu", "u"], ["ddo", "o"], ["gar", "gaara"], ["\u0261", "e"], ["chuu", "f"], ["B", "ak"], ["ka", "bedo"], ["ne", "e"], ["di", "ra"], ["\u0292", "ila"], ["ame", "wo"], ["y", "kka"], ["ak", "po"], ["mba", "ki"], ["ga", "za"], ["\u1240\u1208\u121b", "\u1275"], ["\u1230", "\u120b"], ["no", "ori"], ["d", "hin"], ["shush", "ani"], ["kutu", "kura"], ["es", "si"], ["hu", "mna"], ["fu", "fu"], ["w", "uni"], ["z", "y"], ["e", "pa"], ["\u12eb", "\u1233"], ["\u12d9", "\u122a\u12eb"], ["obu", "dde"], ["jawu", "lo,"], ["miri", "dde"], ["o", "va"], ["A", "ha"], ["vu", "buka"], ["ha", "fi"], ["e", "ita"], ["kiri", "mu"], ["\u1261", "\u1293"], ["In", "zu"], ["bi", "bili"], ["\u1260", "\u120b"], ["gi", "re"], ["aka", "ta"], ["ny", "\u0254ge"], ["a", "bandi"], ["nam", "da"], ["\u12dd\u1270", "\u1230\u122d"], ["\u12d8\u122d", "\u12a2"], ["ikpo", "ku"], ["fi", "ira"], ["la", "ze"], ["\u1220", "\u122b"], ["\u12a5\u1295", "\u1300"], ["\u12a5\u1295\u1300", "\u122b"], ["\u12ed\u122d", "\u12a0"], ["te", "bi"], ["em", "mere"], ["ye", "laga"], ["s", "vi"], ["un", "d"], ["mo", "ta"], ["b", "hu"], ["fa", ","], ["nsi", "ko"], ["la", "b"], ["ka", "ara"], ["mu", "nga"], ["mi", "ya"], ["loon", "se"], ["ne", "mu"], ["dan", "de"], ["\u121d\u130d", "\u1265"], ["\u1203", "\u1208"], ["b\u028b", "ak\u028b"], ["kumu", "mu"], ["kun", "neen"], ["l", "yo"], ["om", "wana"], ["K", "asa"], ["\u1260\u12d3", "\u120d"], ["bo", "\u014b"], ["se", "\u0192o\u0192o"], ["batu", "dde"], ["\u1240", "\u120d"], ["kom", "gi"], ["un", "dhi"], ["ansi", "in"], ["on", "si"], ["v\u0254ge", "le"], ["oku", "sala"], ["ki", "fi"], ["geza", "ako"], ["\u1260\u1323", "\u121d"], ["ma", "m"], ["ama", "izi"], ["kun", ","], ["won", "go"], ["kon", "kola"], ["we", "la"], ["ebi", "muli"], ["eki", "mu"], ["bila", "mba"], ["\u12a0\u1208", "\u1362"], ["wa", "re"], ["aba", "lina"], ["ya", "ba"], ["tun", "ga"], ["ki", "di"], ["\u134d", "\u122c"], ["\u025b", "ne"], ["wa", "ri"], ["su", "ku"], ["aka", "wanda"], ["\u1243", "\u121b"], ["k", "kumi"], ["h", "wa"], ["ak", "\u025b"], ["le", "wo"], ["\u1218\u1235", "\u1270"], ["\u12e8", "\u1208"], ["\u1218", "\u1233"], ["\u1264", "\u1270"], ["ezi", "mu"], ["ya", "l"], ["\u0253ok", "ko"], ["u", "tu"], ["ta", "tu"], ["eko", "ma"], ["ma\u0253", "\u0253e"], ["\u0253", "\u0253"], ["li", "le"], ["r\u0254", "fo\u0254"], ["end", "rika"], ["Ye", "vu"], ["E", "no"], ["o", "loko"], ["\u12ad\u134d", "\u120d"], ["me", "ran"], ["inge", "t"], ["kom", "puta"], ["eya", "li"], ["e", "do"], ["\u1218", "\u120d\u12ad"], ["lo", "lo"], ["N", "di"], ["\u025b", "d\u0269"], ["oku", "tambu"], ["he", "r"], ["rosi", "mine"], ["fe", "ti"], ["sinzi", "zo"], ["ske", "t"], ["T", "si"], ["g", "wen"], ["cu", "k"], ["ga", "lii"], ["mbe", "."], ["d", "ri"], ["re", "ka"], ["b\u0254", "\u0254"], ["st", "re"], ["gh", "t"], ["s", "ma"], ["we", "."], ["on", "."], ["ki", "bwa"], ["ma", "kolo"], ["bile", "i"], ["min", "ira"], ["tege", "eza"], ["bo", "to"], ["po", "so"], ["C", "ongo"], ["fa", "l"], ["ebi", "seera"], ["man", "ta"], ["P", "ed"], ["sika", "."], ["ga", "re"], ["H", "oo"], ["bo", ","], ["i", "bo"], ["eki", "ra"], ["ndi", "yo"], ["o", "pe"], ["C", "G"], ["A", "gba"], ["c", "to"], ["oni", "."], ["tan", "dika"], ["i", "po"], ["lee", "ro"], ["fa", "s"], ["bo", "w"], ["ala", ","], ["mo", "mbongo"], ["g", "."], ["fu", ","], ["Par", "k"], ["i", "gi"], ["ga", "ze"], ["on", "ge"], ["S", "ho"], ["mi", "di"], ["lu", "la"], ["baa", "wo"], ["ki", "ji"], ["muka", "aga"], ["i\u0300", "gba"], ["l\u00e1\u00ec", "s\u00ed"], ["dino", "sa"], ["S", "t."], ["m", "\u00e0"], ["Afghanistan", ","], ["\u00e0", "t"], ["F", "en"], ["ti", "ke"], ["omi", "."], ["o", "\u00fan"], ["n", "\u01f9kan"], ["\u00f3", "t\u1ecd\u0301"], ["Maroo", "chy"], ["Maroochy", "dore"], ["\u00f2furu", "f\u00fa"], ["gb", "\u1eb9"], ["\u1ecd\u0300", "t\u1ecd\u0300"], ["K", "\u00f2"], ["gb", "\u1ecd\u0301"], ["fo", "j\u00fa"], ["\u00f2", "\u1e63"], ["w\u1ecd", "l\u00e9"], ["m\u1ecd\u0301", "k\u00e0n"], ["\u00ec", "t\u00e0n"], ["b", "\u00fa"], ["t\u00ed", "t\u00ed"], ["i", "fe"], ["\u00e0\u00e0", "r\u00f9n"], ["nd", "\u00edn"], ["Mol", "do"], ["j", "ani"], ["gbe", "\u0301"], ["T", "ra"], ["P", "M"], ["Encela", "dus"], ["pa", "\u0300"], ["Jo", "han"], ["se", "se"], ["\u00ec", "w\u00e0"], ["r\u1eb9", "."], ["me", "ji"], ["\u0300", "kan"], ["Paci", "fic"], ["on\u00ed", "m\u1ecd\u0300"], ["kan", "\u00e1\u00e0"], ["on", "s"], ["\u1ecd\u0301", "l\u1eb9\u0300"], ["G", "bo"], ["Japan", ","], ["\u00ec", "y\u00e0"], ["oni", ","], ["ko", "\u0300"], ["m\u00ed", "m\u1ecd\u0300"], ["Gi", "an"], ["l\u1ecd\u0301", "p\u1ecd\u0300"], ["\u00ec", "j\u00ecn"], ["John", "son"], ["Ma", "ri"], ["I", "l\u00e9"], ["tu", "s"], ["k\u00e9", "de"], ["Tu", "pu"], ["3", "9,"], ["L", "on"], ["Ninten", "do"], ["8", "3,"], ["f", "\u1eb9\u0300"], ["sa", "me"], ["in", "\u00e1"], ["O", "la"], ["go", "s"], ["Bri", "ta"], ["U", "."], ["G", "y"], ["Gy", "mnastics"], ["\u00ec", "\u1e63\u1eb9\u0301"], ["ala", "pa"], ["Afri", "ca"], ["Arizo", "na"], ["Flori", "da"], ["ona", "l"], ["Bu", "l"], ["Bul", "gari"], ["-", "o"], ["A", "pp"], ["30", ",000"], [",000", "."], ["ni", "le"], ["ez", "en"], ["me", "la"]]}