{"id": "candidate/bpe-v0", "merges": [["a", "n"], ["a", "a"], ["k", "a"], ["i", "n"], ["b", "a"], ["m", "a"], ["l", "a"], ["l", "i"], ["m", "u"], ["r", "a"], ["e", "n"], ["t", "i"], ["g", "a"], ["y", "a"], ["r", "i"], ["k", "u"], ["s", "i"], ["b", "i"], ["o", "n"], ["w", "a"], ["h", "a"], ["y", "e"], ["t", "a"], ["r", "e"], ["l", "e"], ["k", "o"], ["k", "i"], ["d", "i"], ["n", "a"], ["n", "i"], ["e", "e"], ["s", "a"], ["w", "o"], ["m", "i"], ["t", "e"], ["h", "i"], ["b", "e"], ["d", "a"], ["t", "o"], ["g", "i"], ["r", "o"], ["y", "i"], ["z", "a"], ["s", "o"], ["b", "u"], ["b", "o"], ["h", "o"], ["m", "e"], ["d", "e"], ["n", "o"], ["an", "a"], ["l", "o"], ["h", "u"], ["z", "i"], ["m", "o"], ["y", "o"], ["y", "\u025b"], ["d", "o"], ["t", "u"], ["n", "e"], ["g", "o"], ["l", "u"], ["g", "u"], ["w", "e"], ["p", "a"], ["d", "u"], ["m", "aa"], ["r", "u"], ["s", "u"], ["n", "y"], ["n", "ga"], ["v", "a"], ["\u0256", "e"], ["g", "e"], ["p", "i"], ["f", "a"], ["an", "i"], ["h", "e"], ["f", "i"], ["s", "e"], ["m", "an"], ["t", "ye"], ["w", "\u0254"], ["in", "a"], ["p", "e"], ["k", "e"], ["s", "h"], ["b", "aa"], ["v", "i"], ["t", "ti"], ["o", "mu"], ["in", "e"], ["f", "u"], ["n", "u"], ["w", "i"], ["in", "o"], ["k", "an"], ["w", "u"], ["b", "an"], ["n", "'"], ["p", "o"], ["t", "si"], ["m", "ba"], ["j", "a"], ["\u0257", "o"], ["u", "n"], ["l", "an"], ["in", "i"], ["t", "an"], ["v", "o"], ["k", "\u0254"], ["t", "aa"], ["s", "aa"], ["k", "\u028b"], ["a", "m"], ["j", "i"], ["k", "p"], ["b", "\u0254"], ["y", "aa"], ["w", "an"], ["f", "o"], ["z", "e"], ["r", "an"], ["l", "\u0254"], ["t", "s"], ["u", "u"], ["en", "e"], ["q", "a"], ["n", "\u028b"], ["z", "u"], ["d", "ha"], ["l", "aa"], ["a", "ka"], ["u", "m"], ["d", "zi"], ["h", "an"], ["on", "a"], ["on", "o"], ["i", "s"], ["v", "u"], ["a", "r"], ["l", "\u025b"], ["r", "aa"], ["b", "\u025b"], ["a", "ma"], ["y", "u"], ["c", "h"], ["k", "wa"], ["z", "o"], ["k", "y\u025b"], ["s", "ha"], ["a", "\u0256e"], ["s", "hi"], ["k", "hu"], ["d", "an"], ["d", "aa"], ["k", "aa"], ["d", "hi"], ["ku", "n"], ["g", "aa"], ["e", "bi"], ["\u0253", "e"], ["e", "za"], ["y", "an"], ["ee", "s"], ["t", "ta"], ["lan", "gi"], ["e", "ra"], ["\u12a3", "\u1265"], ["s", "an"], ["a", "ba"], ["a", "l"], ["b", "on"], ["i", "t"], ["i", "re"], ["k", "pa"], ["e", "ki"], ["\u0263", "u"], ["k", "ka"], ["e", "ri"], ["y", "'"], ["d", "\u028b"], ["m", "be"], ["\u120d", "\u1362"], ["n", "y\u025b"], ["\u014b", "a"], ["s", "y"], ["\u12a5", "\u1295"], ["t", "en"], ["w", "aa"], ["\u0192", "e"], ["m", "we"], ["e", "b"], ["m", "ine"], ["t", "ra"], ["v", "e"], ["o", "o"], ["le", "e"], ["an", "e"], ["g", "wa"], ["on", "i"], ["y", "ina"], ["c", "a"], ["'", "a"], ["c", "hi"], ["ba", "li"], ["ta", "m"], ["j", "e"], ["t", "\u0254"], ["j", "u"], ["\u014b", "u"], ["m", "mo"], ["f", "e"], ["r", "in"], ["an", "o"], ["y", "in"], ["c", "o"], ["l", "li"], ["i", "ra"], ["d", "za"], ["h", "aa"], ["o", "bu"], ["g", "ba"], ["t", "in"], ["h", "\u0254"], ["d", "de"], ["c", "e"], ["a", "si"], ["p", "u"], ["a", "li"], ["a", "k"], ["n", "so"], ["'", "i"], ["s", "si"], ["e", "ye"], ["t", "ee"], ["'", "ny"], ["k", "ha"], ["i", "k"], ["b", "ee"], ["mu", "li"], ["n", "en"], ["z", "vi"], ["i", "ri"], ["d", "\u0254"], ["a", "y"], ["m", "ma"], ["re", "e"], ["w\u0254", "n"], ["n", "da"], ["e", "mi"], ["a", "ha"], ["a", "re"], ["i", "r"], ["ba", "la"], ["m", "bo"], ["\u120b", "\u12ed"], ["to", "o"], ["b", "in"], ["h", "y\u025b"], ["d", "di"], ["bi", "ri"], ["di", "a"], ["b", "wa"], ["n", "g"], ["\u12ce", "\u127d"], ["g", "yina"], ["a", "yi"], ["\u0263", "a"], ["d", "ini"], ["p", "pe"], ["lo", "ko"], ["a", "ta"], ["li", "i"], ["e", "m"], ["g", "ee"], ["c", "hu"], ["j", "o"], ["en", "i"], ["ar", "y"], ["s", "\u025b"], ["yo", "o"], ["en", "a"], ["a", "wu"], ["am", "in"], ["s", "hu"], ["\u1293", "\u12ed"], ["ha", "ri"], ["m", "bi"], ["n", "ya"], ["ku", "li"], ["e", "ya"], ["me", "\u014b"], ["wa", "li"], ["k", "on"], ["zu", "\u0263u"], ["d", "ee"], ["no", "o"], ["a", "t"], ["k", "ye"], ["n", "ye"], ["ko", "m"], ["q", "q"], ["i", "sa"], ["t", "su"], ["\u0254", "ge"], ["a\u0256e", "wo"], ["d", "on"], ["b", "ba"], ["ka", "ti"], ["d", "in"], ["o", "ku"], ["d", "z"], ["n", "aa"], ["n", "\u0254"], ["d", "\u0269"], ["g", "ha"], ["k", "ono"], ["dha", "."], ["va", "ka"], ["o", "m"], ["y", "."], ["s", "in"], ["g", "an"], ["ny\u025b", "la"], ["ki", "ra"], ["i", "li"], ["ka", "\u014ba"], ["d", "h"], ["m", "."], ["l", "la"], ["c", "ha"], ["a", "la"], ["\u12cd", "\u1362"], ["o", "ri"], ["o", "t"], ["N", "a"], ["\u12dd", "\u1270"], ["w", "'"], ["p", "uu"], ["y", "en"], ["mu", "n"], ["\u0292", "i"], ["l", "ya"], ["\u1361", "\u1361"], ["h", "\u00e3"], ["ri", "ku"], ["n", "an"], ["t", "sa"], ["\u0257", "i"], ["\u12e8", "\u1270"], ["k", "ho"], ["baa", "ko"], ["kp", "l\u0254"], ["f", "fa"], ["t", "\u025b"], ["in", "gi"], ["na", "m"], ["b", "ene"], ["i", "ye"], ["bi", "li"], ["w", "\u025b"], ["z", "aa"], ["be", "do"], ["ra", "."], ["ee", "mmo"], ["o", "l"], ["k", "ya"], ["k", "ana"], ["r", "\u0254"], ["ro", "o"], ["\u12a5", "\u12da"], ["on", "ni"], ["a", "ban"], ["k", "ki"], ["c", "i"], ["m", "ee"], ["pi", "\u025b"], ["y", ","], ["i", "za"], ["k", "ko"], ["d", "da"], ["x", "a"], ["amin", "'ny"], ["l", "\u028b"], ["ga", "la"], ["\u0254", "nu"], ["K", "u"], ["k", "we"], ["a", "z"], ["\u12a5", "\u1293"], ["j", "um"], ["r", "\u025b"], ["k", "ee"], ["bu", "lu"], ["ma", "."], ["q", "u"], ["t", "ana"], ["kp", "le"], ["za", "\u0263"], ["M", "u"], ["h", "ee"], ["c", "he"], ["w", "on"], ["d", "ze"], ["is", "si"], ["ma", "ko"], ["k", "ees"], ["d", "en"], ["ma", "i"], ["\u0257", "um"], ["ran", "gi"], ["O", "mu"], ["\u1218", "\u1235"], ["va", "ra"], ["\u025b", "k\u028b"], ["x", "x"], ["a", "me"], ["g", "bo"], ["f", "an"], ["o", "yo"], ["n", "\u0269"], ["pi", "ki"], ["\u0256e", "ka"], ["n", "gi"], ["\u0292", "\u025b"], ["w", "\u028b"], ["kan", "di"], ["an", "yi"], ["r", "wa"], ["la", "la"], ["ka", "ma"], ["m", "wa"], ["yan", "go"], ["t", "we"], ["to", "ka"], ["i", "z"], ["\u1240", "\u1208"], ["E", "n"], ["ta", "ka"], ["c", "ho"], ["al", "\u028b"], ["a", "sa"], ["e", "r"], ["s", "\u0254"], ["d", "do"], ["\u12a5", "\u12e9"], ["ani", "i"], ["m", "en"], ["k", "in"], ["m", "mi"], ["\u1275", "\u1295"], ["mo", "o"], ["m", "ana"], ["puu", "ni"], ["ka", "la"], ["h", "in"], ["s", "he"], ["w", "ana"], ["\u12e8", "\u121a"], ["mu", "."], ["a", "va"], ["fu", "e"], ["ba", "r"], ["t", "te"], ["ru", "vara"], ["\u0256e", "wo"], ["e", "s"], ["a", "d\u028b"], ["\u12d8", "\u1208"], ["du", "u"], ["\u12cd", "\u1295"], ["t", "y"], ["l", "in"], ["ti", "ra"], ["ta", "'"], ["d", "he"], ["emi", "ti"], ["de", "'i"], ["a", "te"], ["na", "\u014b"], ["an", "ga"], ["m", "pi"], ["ti", "i"], ["tan", "no"], ["m", "\u0254"], ["so", "."], ["vo", "vo"], ["ku", "ti"], ["m", "\u025b"], ["me", "."], ["r", "en"], ["g", "b"], ["a", "ri"], ["ka", "ra"], ["lo", "o"], ["iza", "y"], ["mi", "sy"], ["pi", "li"], ["ko", "o"]]}